<unk>	0
<s>	0
</s>	0
.	-3.20286
을	-3.68499
의	-3.78314
▁	-3.98438
를	-4.13918
는	-4.14293
은	-4.36665
가	-4.4063
에	-4.43508
이	-4.45457
,	-4.53191
고	-4.70006
로	-5.15209
에서	-5.1933
한	-5.21801
일	-5.31103
인	-5.36144
▁이	-5.38911
)	-5.42835
과	-5.51046
(	-5.52383
으로	-5.54036
와	-5.56034
▁있다	-5.60115
▁수	-5.71291
도	-5.71323
▁밝혔다	-5.73201
▁말했다	-5.74394
할	-5.82393
년	-5.85343
▁있는	-5.98584
▁그	-6.01505
▁그는	-6.03357
지	-6.06779
하고	-6.142
▁2	-6.17333
▁전	-6.21103
▁1	-6.2114
하는	-6.22427
다	-6.2525
▁대한	-6.26548
▁위해	-6.28607
했다	-6.292
▁전했다	-6.29241
월	-6.30449
▁이번	-6.31041
▁한	-6.31873
▁것이라고	-6.36319
만	-6.36622
▁지난	-6.37903
▁있다고	-6.41871
▁3	-6.41995
▁미국	-6.42251
며	-6.48162
현지시간	-6.49053
▁중	-6.53106
▁대해	-6.54203
해	-6.54743
▁것으로	-6.5591
"	-6.56412
명이	-6.57454
된	-6.59767
▁미	-6.60052
에게	-6.64931
▁"	-6.65138
▁그러나	-6.6608
기	-6.66357
▁것을	-6.74723
▁4	-6.76528
자	-6.79957
▁이라크	-6.80785
▁5	-6.83135
▁6	-6.84231
▁다른	-6.85405
▁한편	-6.85524
▁더	-6.87655
스	-6.88324
게	-6.9161
나	-6.92588
▁10	-6.92692
히	-6.93628
▁중국	-6.93707
하게	-6.98329
s	-6.98485
▁대통령	-6.99142
라고	-6.99268
운	-7.01044
명의	-7.02555
▁북한	-7.05807
던	-7.05836
▁후	-7.06135
▁또	-7.07697
시	-7.07904
들이	-7.07931
▁이후	-7.10797
하기	-7.11698
▁정부	-7.14257
하지	-7.15867
▁많은	-7.1649
리	-7.16532
▁부시	-7.17143
▁대통령은	-7.17172
▁두	-7.1747
적인	-7.18126
▁주	-7.18715
▁통해	-7.19269
▁자신	-7.19314
▁것이다	-7.19787
▁가장	-7.19906
▁8	-7.19953
▁동안	-7.21753
▁대변인은	-7.21983
라	-7.22386
▁위한	-7.23015
▁7	-7.2327
이라고	-7.24402
▁영국	-7.24446
했다고	-7.24533
이다	-7.27011
▁같은	-7.27128
명	-7.27403
▁내	-7.27746
들은	-7.29856
될	-7.31016
▁바	-7.31442
▁주장했다	-7.32344
▁한국	-7.32425
대	-7.3328
▁또한	-7.33316
▁현재	-7.3339
▁것	-7.34218
▁약	-7.3521
주	-7.3604
까지	-7.36081
▁세계	-7.3618
▁덧붙였다	-7.37468
서	-7.38137
▁할	-7.39018
▁될	-7.39979
▁것은	-7.40058
▁등	-7.40467
어	-7.41679
드	-7.42074
▁12	-7.42837
▁때	-7.43253
▁관련	-7.43666
세	-7.43775
▁이상	-7.44214
▁있었다	-7.45064
▁9	-7.46232
▁보도했다	-7.46421
▁경우	-7.46815
개	-7.47374
▁최근	-7.47735
▁않았다	-7.47738
사	-7.4872
야	-7.49202
▁오바마	-7.49794
▁했다	-7.51116
하며	-7.51895
트	-7.51898
수	-7.5218
▁20	-7.52473
▁일부	-7.52717
▁오	-7.54523
▁영화	-7.55128
▁11	-7.55296
▁문제	-7.55845
했던	-7.5591
▁당시	-7.55948
▁있습니다	-7.56575
▁모든	-7.56608
및	-7.5727
▁새로	-7.57772
▁함께	-7.58206
▁예정이다	-7.58471
▁경찰은	-7.59676
▁알	-7.60259
▁뒤	-7.60845
됐다	-7.61161
▁것이	-7.61259
했으며	-7.61415
▁그리고	-7.61637
에는	-7.61976
▁'	-7.62821
▁일본	-7.64446
'	-7.64717
▁모두	-7.64827
▁설명했다	-7.65431
▁수도	-7.66189
성	-7.66398
▁몇	-7.67823
▁정부는	-7.68147
▁30	-7.68505
▁경제	-7.68527
▁때문에	-7.7038
르	-7.70439
▁한다	-7.71309
▁말	-7.71588
▁조사	-7.72257
▁이들	-7.72648
아	-7.73007
▁19	-7.7345
▁있으며	-7.73473
▁미군	-7.73619
면	-7.74436
▁일	-7.7445
들을	-7.74976
상	-7.75368
▁큰	-7.75806
▁파키스탄	-7.75999
▁프랑스	-7.76261
▁지난해	-7.7719
▁계속	-7.77576
▁유엔	-7.78206
▁사고	-7.78533
비	-7.79098
▁공격	-7.79584
니	-7.79975
▁우리	-7.79979
▁(	-7.80091
▁올해	-7.80123
원	-7.80244
▁나	-7.80268
진	-7.80637
▁이스라엘	-7.80823
억	-7.81108
보다	-7.81483
했습니다	-7.81796
▁없다고	-7.82296
▁15	-7.82315
▁이날	-7.83227
▁경찰	-7.8339
▁발생한	-7.83503
▁시	-7.8357
명을	-7.84013
▁한다고	-7.84434
▁총리는	-7.84447
에서는	-7.84583
▁하는	-7.84667
크	-7.8569
▁이란	-7.85701
▁러시아	-7.85769
해야	-7.86067
▁경기	-7.86262
▁받았다	-7.8641
▁제	-7.86424
적	-7.86859
▁계획	-7.86881
▁대통령이	-7.86994
▁지역	-7.87248
▁사	-7.87386
▁않을	-7.87599
▁민주당	-7.87759
치	-7.88165
▁발표했다	-7.88195
분	-7.88413
▁사실	-7.88742
▁국가	-7.88938
부	-7.8933
▁지	-7.89487
▁아직	-7.90498
▁받고	-7.90739
차	-7.91287
▁클린턴	-7.92205
▁달러	-7.93026
선	-7.93275
입니다	-7.93952
e	-7.94348
▁에	-7.94968
전	-7.95215
약	-7.95712
▁결과	-7.96985
▁비	-7.97072
▁하고	-7.97096
소	-7.97601
▁16	-7.98562
▁테러	-7.99455
▁반	-8.00063
라는	-8.0013
적으로	-8.00658
▁열린	-8.00815
한다	-8.00854
에따르면	-8.0098
▁데	-8.01286
▁여성	-8.01513
▁의해	-8.01663
▁가운데	-8.01706
▁존	-8.0171
▁사람들이	-8.01748
▁14	-8.021
▁있을	-8.0249
▁인해	-8.02531
▁회담	-8.02997
▁주요	-8.03016
당	-8.03146
▁사건	-8.0348
▁미국의	-8.03518
이나	-8.03572
간	-8.03818
▁13	-8.04024
하다	-8.0412
▁18	-8.04124
▁거	-8.04178
▁후보	-8.04199
즈	-8.04242
에도	-8.0458
▁다시	-8.04731
부터	-8.05097
지만	-8.05166
▁핵	-8.05418
▁지원	-8.05708
▁된다	-8.06712
▁정부가	-8.07338
으며	-8.07495
▁시위	-8.07506
용	-8.07685
▁첫	-8.07842
▁달	-8.08151
▁혐의로	-8.08465
▁않은	-8.08824
타	-8.08879
▁국제	-8.09037
▁관계	-8.09636
시간	-8.098
▁이미	-8.09919
우	-8.10919
▁선거	-8.11028
▁발표	-8.11111
▁채	-8.11535
▁총리	-8.11914
었다	-8.12284
▁보고	-8.12354
▁됐다	-8.13624
장	-8.13837
▁아	-8.13945
번	-8.13956
▁조치	-8.14191
▁총	-8.14239
▁아프간	-8.14983
▁피해	-8.15203
▁군	-8.15483
면서	-8.1559
▁위치한	-8.15838
여	-8.16399
▁해	-8.16434
▁25	-8.16706
로부터	-8.16998
마	-8.17012
려	-8.17145
1	-8.17411
화	-8.17558
▁오늘	-8.17824
▁지금	-8.1791
길	-8.17926
▁시간	-8.18164
▁세	-8.18184
돼	-8.18226
보	-8.1847
km	-8.18536
미	-8.18857
▁추가	-8.19133
되어	-8.19153
프	-8.19542
▁관계자는	-8.19685
바	-8.19738
▁당국은	-8.19743
▁대부분	-8.20117
▁이슬람	-8.20174
▁없는	-8.2043
▁50	-8.2043
▁대	-8.20486
▁부	-8.20933
▁연구	-8.20987
▁안	-8.20993
?	-8.21089
▁마	-8.21251
▁우려	-8.21261
▁활동	-8.21534
▁초	-8.21628
디	-8.21906
▁팔레스타인	-8.22066
▁17	-8.22116
질	-8.22125
▁매우	-8.22278
▁강	-8.2253
▁인도	-8.22649
▁다	-8.22667
▁없다	-8.22694
제	-8.22772
▁TV	-8.22899
하	-8.23037
▁방문	-8.23524
▁뉴욕	-8.23589
조	-8.23646
하여	-8.23802
▁줄	-8.2385
위	-8.23878
하면서	-8.24021
2	-8.24121
▁유럽	-8.24448
▁승리	-8.24702
▁있다는	-8.24767
▁아이	-8.24871
▁21	-8.24933
▁이는	-8.25026
들	-8.25031
▁그들은	-8.25524
오	-8.25658
▁결정	-8.25761
▁기록	-8.2589
▁않고	-8.25967
▁명의	-8.26354
▁혐의	-8.26427
파	-8.26556
년간	-8.26665
▁to	-8.26701
▁정보	-8.26746
정	-8.26889
▁차	-8.26923
다고	-8.26941
▁포함	-8.27135
▁24	-8.27236
▁시장	-8.27295
코	-8.27331
티	-8.27746
m	-8.27767
▁노	-8.28148
▁우리는	-8.28342
▁호주	-8.28647
▁23	-8.28678
▁지적했다	-8.28681
▁조지	-8.28825
▁여러	-8.28831
달러	-8.28944
▁회사	-8.28951
▁독일	-8.29112
▁하지만	-8.29297
▁탈레반	-8.2974
▁어떤	-8.29874
▁조	-8.30134
개월	-8.30367
▁대선	-8.30405
내	-8.30656
▁잘	-8.30864
▁40	-8.31246
▁부상	-8.31327
▁프로그램	-8.31539
되는	-8.31838
▁관리	-8.3185
권	-8.31908
▁폭탄	-8.32232
3	-8.3225
▁받은	-8.32393
처럼	-8.3246
▁이에	-8.32649
▁2006	-8.32653
▁하	-8.32765
▁감독	-8.32953
▁새	-8.33084
▁대학	-8.33202
▁보	-8.33429
▁최고	-8.33547
러	-8.33576
▁소속	-8.33727
▁100	-8.33755
▁지지	-8.33785
▁언론	-8.33817
▁못했다	-8.34035
토	-8.34041
▁하지	-8.34124
▁the	-8.34353
▁오후	-8.34549
▁간	-8.34628
▁내용	-8.34663
▁보인다	-8.34867
식	-8.35224
▁''	-8.35381
명은	-8.36007
▁올림픽	-8.36013
▁협상	-8.36381
▁않는다	-8.36537
▁인터넷	-8.36703
카	-8.36852
▁있다며	-8.3695
▁27	-8.37478
▁기	-8.37589
▁판매	-8.3822
습니다	-8.38396
▁있던	-8.38505
▁경찰이	-8.38568
되지	-8.38837
▁터키	-8.38871
▁사망	-8.3893
레	-8.39006
린	-8.39059
▁차량	-8.39194
▁그녀는	-8.39569
▁병원	-8.39614
▁기자	-8.39815
▁불	-8.39825
▁정	-8.40075
산	-8.4012
▁많	-8.40484
▁지도자	-8.40645
구	-8.40723
▁비난	-8.40873
됐다고	-8.41318
모	-8.41588
▁시작	-8.41732
회	-8.41884
▁비난했다	-8.4211
들의	-8.42485
▁물	-8.42555
▁성	-8.42555
▁않았다고	-8.42564
신	-8.42713
5	-8.42741
▁무	-8.42795
▁W	-8.42801
개의	-8.42931
국	-8.42937
▁22	-8.43166
▁이러	-8.43188
▁카	-8.43677
▁남자	-8.43837
▁상원의원	-8.43841
브	-8.43934
▁마지막	-8.44058
▁전쟁	-8.44271
▁된	-8.44711
▁사람	-8.44758
그	-8.44945
▁기술	-8.45625
▁자동차	-8.45641
이며	-8.45668
거나	-8.45858
살	-8.45953
▁원	-8.4598
▁컴퓨터	-8.46029
▁매케인	-8.46198
▁미얀마	-8.46259
든	-8.46374
▁in	-8.46405
▁이어	-8.46581
노	-8.46667
▁of	-8.4667
u	-8.46715
▁없었다	-8.46897
▁지난달	-8.46934
▁입장	-8.46976
▁인근	-8.47016
▁오전	-8.47259
한다고	-8.4742
▁처음으로	-8.47505
▁떨어진	-8.47552
▁있어	-8.47578
▁폭발	-8.47595
▁2005	-8.47669
▁앞으로	-8.47706
▁석방	-8.47831
▁예정	-8.47857
되었다	-8.47985
▁그녀	-8.48092
▁피	-8.48188
▁검찰	-8.4831
▁북한이	-8.48474
계	-8.48587
직	-8.48632
▁자	-8.4875
▁앞서	-8.48844
▁갖고	-8.48979
안	-8.49376
▁강조했다	-8.49497
ed	-8.49554
점	-8.49587
▁것에	-8.49727
▁미국과	-8.49746
▁사이	-8.50269
▁도시	-8.50551
였다	-8.50778
되고	-8.51109
▁구	-8.51156
▁남부	-8.51246
▁최소	-8.51256
▁의사	-8.51541
▁A	-8.51789
▁사망했다	-8.52135
▁장관은	-8.52211
▁증가	-8.52479
▁방송	-8.52519
▁이용	-8.52579
▁상	-8.52653
▁공화당	-8.5283
했지만	-8.53078
▁볼	-8.53566
▁투표	-8.53569
▁변화	-8.53585
▁사망자	-8.53586
▁지역에서	-8.53612
하는데	-8.53747
릴	-8.53934
▁준비	-8.54055
▁정책	-8.54084
▁만에	-8.54112
▁처음	-8.54146
▁발생	-8.54148
▁규모	-8.5418
▁당	-8.54255
중	-8.54402
▁이런	-8.54416
관	-8.54466
▁이들은	-8.54494
▁우주	-8.54658
▁모	-8.54771
S	-8.54807
▁인터뷰에서	-8.54832
법	-8.55013
▁상황	-8.55063
했고	-8.55139
▁26	-8.55172
▁보도	-8.55726
▁좋은	-8.558
▁파	-8.55875
난	-8.55894
▁미국은	-8.55908
들에게	-8.56012
▁AP	-8.56017
▁재	-8.5602
▁밤	-8.562
▁양	-8.56214
호	-8.56433
데	-8.56531
온	-8.56677
방	-8.56687
했으나	-8.56789
번째	-8.56875
▁개발	-8.56908
▁없이	-8.57056
▁개	-8.57148
▁알려졌다	-8.57387
▁영향	-8.57598
▁위협	-8.57693
▁사람들은	-8.57695
▁다음	-8.57756
▁것입니다	-8.57815
▁산	-8.57893
▁치료	-8.57893
▁여행	-8.57912
▁오바마는	-8.57929
▁이를	-8.58203
▁당국	-8.58319
▁않다	-8.58393
▁자신이	-8.58429
C	-8.5863
▁용의자	-8.58762
▁의회	-8.58972
▁가진	-8.59059
▁이름	-8.59107
발	-8.59217
▁공식	-8.59255
▁사망했다고	-8.59396
▁2005.08	-8.59486
▁힐러리	-8.596
▁사용	-8.59602
▁나는	-8.59687
▁검사	-8.59713
▁안전	-8.59948
▁외	-8.60046
ing	-8.60055
y	-8.60186
▁주장	-8.60219
a	-8.60318
단	-8.60547
에따라	-8.60605
▁있도록	-8.60925
▁사망한	-8.61005
▁아시아	-8.61027
▁28	-8.61405
▁중단	-8.61438
▁점	-8.61614
▁가능성	-8.61658
▁야당	-8.61887
▁해결	-8.61947
으로부터	-8.62057
했었다	-8.62112
▁김	-8.6217
하도록	-8.62411
종	-8.62512
▁발	-8.62581
▁미사일	-8.62614
하기로	-8.62622
▁반군	-8.62646
▁합의	-8.62655
▁말했습니다	-8.62678
▁불법	-8.62897
▁29	-8.63042
▁발생했다	-8.63089
▁생각	-8.63385
▁법원	-8.63522
체	-8.63574
루	-8.63642
▁있지만	-8.63682
▁신	-8.63726
▁거래	-8.63766
됐으며	-8.63918
▁최초	-8.63924
▁현지	-8.64216
▁노력	-8.64408
▁이탈리아	-8.64487
▁가족	-8.64525
▁반대	-8.64683
▁매	-8.6474
▁상태	-8.64786
▁버락	-8.64946
▁이전	-8.65048
▁S	-8.65215
▁행사	-8.65463
▁스	-8.65473
▁성명	-8.65647
▁리	-8.65711
▁에서	-8.65926
▁스페인	-8.66233
▁날	-8.66275
▁도	-8.66388
▁집	-8.66473
▁비행기	-8.6655
▁미국이	-8.66736
▁반면	-8.66751
▁중요한	-8.66758
이었다	-8.66851
▁관한	-8.6689
▁평화	-8.67147
▁열	-8.67427
▁가격	-8.67567
▁바그다드	-8.67667
물	-8.6821
년에	-8.68227
▁주둔	-8.68374
▁연기	-8.68401
이라는	-8.68406
▁대표	-8.68563
더	-8.6857
▁공	-8.68774
▁발언	-8.68792
터	-8.68879
▁무샤라프	-8.68963
하겠다고	-8.69088
▁정도	-8.69105
▁사태	-8.69212
▁런던	-8.69225
▁건물	-8.69321
▁지난주	-8.69425
▁생산	-8.69449
▁사람들	-8.69461
▁모습을	-8.69596
▁아버지	-8.69607
▁장	-8.69635
임	-8.6965
▁연방	-8.69707
▁북부	-8.69904
▁벌이	-8.69967
▁원문기사보기	-8.70206
▁역사	-8.7022
포인트	-8.70503
▁정치적	-8.70512
▁논의	-8.70558
▁2008	-8.70874
▁최대	-8.70993
▁대통령과	-8.71011
▁팀	-8.71059
키	-8.711
▁돈	-8.71153
마리	-8.71225
▁백악관	-8.71255
▁CNN	-8.71367
▁소	-8.71413
▁공급	-8.71587
▁코	-8.71654
_	-8.71658
피	-8.71766
군	-8.71771
포	-8.71864
▁필요	-8.71914
▁정치	-8.72147
▁60	-8.72227
t	-8.7223
▁이와	-8.72314
▁왔다	-8.72335
▁단체	-8.72361
▁올	-8.7237
▁불구하고	-8.72422
▁의하면	-8.72427
▁금융	-8.72511
▁유	-8.72602
동	-8.72832
들과	-8.73044
▁폭탄테러	-8.73182
▁했다고	-8.7332
▁자금	-8.73531
▁학교	-8.73621
▁수사	-8.74073
o	-8.74178
article	-8.7425
▁발견	-8.74406
▁서비스	-8.74419
▁인질	-8.7453
▁심	-8.74541
력	-8.74569
날	-8.74752
()	-8.74828
▁전에	-8.74927
경	-8.75152
▁타	-8.75314
▁위험	-8.75407
는데	-8.7554
▁은행	-8.75657
▁아니다	-8.75659
▁살해	-8.75725
er	-8.75949
▁박사는	-8.75985
▁알카에다	-8.76563
▁얻	-8.76647
n	-8.76832
문	-8.76873
d	-8.76877
석	-8.76915
▁무기	-8.76965
▁것이라는	-8.77015
▁관심	-8.77036
감	-8.77052
배	-8.77153
▁결국	-8.77309
▁역할	-8.77394
▁지역에	-8.77515
▁출신	-8.77562
▁공항	-8.7766
▁보다	-8.77706
세의	-8.78048
▁국경	-8.78058
▁시신	-8.78108
▁동영상	-8.78123
연	-8.7816
▁번째	-8.78341
▁가능성이	-8.78403
거	-8.78412
▁총리가	-8.78498
▁서	-8.78777
▁군사	-8.78839
▁부토	-8.78853
▁아침	-8.78865
▁예정이라고	-8.78957
▁지구	-8.78962
▁티베트	-8.79046
▁요구	-8.79118
▁뜻	-8.79232
▁사르코지	-8.79252
▁어	-8.79524
▁부족	-8.79589
▁아이들	-8.79735
▁자살	-8.80006
공	-8.80034
▁높은	-8.80044
▁여부	-8.80339
▁강력	-8.80471
▁조직	-8.80497
▁이제	-8.8083
▁이같	-8.80842
차례	-8.80978
▁감소	-8.81154
천	-8.81226
▁상승	-8.81374
▁살	-8.81401
▁선수	-8.8141
▁전화	-8.81686
▁배	-8.81884
▁법	-8.81899
▁행동	-8.81925
▁자신들	-8.81971
▁독립	-8.82044
▁2004	-8.82071
▁숨졌다	-8.82243
▁게임	-8.82325
▁충돌	-8.82464
▁어제	-8.82498
▁하마스	-8.82508
유	-8.82553
▁발사	-8.82808
▁역시	-8.82895
란	-8.82967
▁주택	-8.83065
도록	-8.83139
▁아들	-8.83172
▁곳	-8.8319
▁직접	-8.83246
▁라	-8.83258
▁이야기	-8.83289
▁라이스	-8.83332
학	-8.83543
형	-8.83624
▁더욱	-8.83691
▁곧	-8.83739
▁않는	-8.8388
▁우승	-8.83946
병	-8.83952
▁말을	-8.83959
A	-8.84012
▁비행	-8.84127
▁납치	-8.84248
▁타고	-8.84309
▁각	-8.84328
▁고위	-8.8433
▁병력	-8.84605
시킬	-8.84985
7	-8.85141
급	-8.85145
▁금지	-8.85293
▁되는	-8.85308
▁공동	-8.85352
된다	-8.85377
실	-8.85851
▁회장	-8.85945
▁건강	-8.861
▁문	-8.86236
▁기간	-8.86274
▁보호	-8.8628
지는	-8.86323
▁관련된	-8.86339
▁투자	-8.86584
▁나라	-8.86857
▁성명에서	-8.86884
▁운동	-8.86999
▁못	-8.8714
이라며	-8.87169
g	-8.87242
▁필요한	-8.87248
▁국방부	-8.87276
8	-8.87395
▁실	-8.87408
▁이유로	-8.8749
▁골	-8.87491
네	-8.87513
▁선	-8.87523
▁앞	-8.87666
▁것이며	-8.87694
츠	-8.8772
재	-8.87795
▁공개	-8.87895
▁건설	-8.88019
▁포	-8.88141
▁확인	-8.88213
▁31	-8.88243
▁회의	-8.88323
▁뉴스	-8.8843
▁방	-8.8847
하던	-8.88546
▁하루	-8.8863
하자	-8.88776
▁워싱턴	-8.88812
해서	-8.88953
▁까지	-8.89061
▁코리아	-8.89114
▁연	-8.89134
▁노무현	-8.89198
4	-8.89217
▁인용	-8.8924
▁철수	-8.89696
▁입	-8.89777
너	-8.8992
▁위	-8.89947
였던	-8.90001
▁신문	-8.9005
▁핵무기	-8.90102
▁사람이	-8.90326
▁호텔	-8.90328
▁보안	-8.90411
CNN	-8.90424
▁캘리포니아	-8.90557
▁재개	-8.90631
무	-8.90731
▁알고	-8.90795
▁2003	-8.90842
▁힘	-8.90891
▁사건에	-8.90897
▁부인	-8.9098
▁C	-8.91008
▁베이징	-8.91053
▁받을	-8.91521
▁서울	-8.91551
▁하락	-8.91708
명과	-8.91759
버	-8.91785
▁방법	-8.91819
▁협력	-8.91847
▁주변	-8.91872
▁폐쇄	-8.92077
▁한국인	-8.9208
▁의원	-8.92164
▁이동	-8.92233
▁수술	-8.92347
▁하나	-8.92396
▁진행	-8.92399
하면	-8.92827
교	-8.92889
▁아니라	-8.92967
▁손	-8.93023
장은	-8.93043
일간	-8.93088
▁위기	-8.93175
▁증거	-8.93202
▁전문가들은	-8.93268
▁구조	-8.9331
▁석유	-8.93446
▁발견했다	-8.93545
워	-8.9381
▁a	-8.93961
▁국무부	-8.94117
▁시도	-8.94269
친	-8.9427
▁열리는	-8.94451
▁판결	-8.94515
▁사진	-8.946
▁눈	-8.946
▁생활	-8.94654
청	-8.94785
▁너무	-8.94931
▁사망하고	-8.94944
▁시작했다	-8.94953
▁체포	-8.95013
▁화재	-8.95016
▁콜롬비아	-8.95029
▁상원	-8.95103
▁시위대	-8.95189
초	-8.95443
요	-8.95446
JO	-8.95499
▁적	-8.95568
▁기자회견에서	-8.9581
▁과학자들	-8.95818
▁법안	-8.95937
▁보였다	-8.96086
심	-8.96231
▁성장	-8.96239
하려	-8.96245
▁딸	-8.96327
▁현	-8.96422
▁판사	-8.96454
만달러	-8.96469
▁내년	-8.96512
INS	-8.96895
▁요구했다	-8.96992
억원	-8.97002
년까지	-8.97193
▁행위	-8.97202
▁레바논	-8.97342
긴	-8.97369
▁연설	-8.97404
i	-8.97502
▁결혼	-8.9754
▁남	-8.9768
울	-8.97707
▁있고	-8.97714
▁마을	-8.97721
▁사회	-8.97753
▁전망	-8.97945
▁빌	-8.97952
▁기업	-8.98047
▁수상	-8.98078
▁개인	-8.98142
▁범죄	-8.9842
▁아프가니스탄	-8.98466
으나	-8.9851
▁길	-8.98551
al	-8.98813
▁200	-8.98979
년대	-8.99144
▁입었다	-8.99154
▁언급	-8.99195
만명	-8.99223
▁앞두고	-8.99275
▁여전	-8.99307
후	-8.99429
▁이상이	-8.99508
간의	-8.99588
T	-8.99629
6	-8.99704
▁멕시코	-8.99756
▁어떻게	-8.99758
▁우	-8.99818
▁드	-8.99894
▁폴	-8.99993
▁안에	-9.00106
▁음악	-9.00461
▁레	-9.00474
▁민간인	-9.00496
▁도로	-9.00541
▁문제에	-9.00641
E	-9.00722
반	-9.00726
시켰다	-9.00727
▁있게	-9.00887
▁태국	-9.00923
혀	-9.00923
▁대사관	-9.00933
▁친구	-9.01059
▁대변인	-9.01121
▁비디오	-9.01227
▁에너지	-9.01258
▁기회	-9.01273
▁훈련	-9.01396
▁2000	-9.01553
에서도	-9.01636
▁제안	-9.01906
▁가지	-9.01936
행	-9.02124
▁아무	-9.02236
▁말한다	-9.02712
▁팔	-9.02726
▁작전	-9.02729
▁교육	-9.02882
▁B	-9.02951
▁보고서	-9.03106
▁저	-9.03203
▁있었던	-9.03215
▁밝혀졌다	-9.0322
스트	-9.03323
▁관할	-9.03383
▁또는	-9.03459
위를	-9.03473
강	-9.03476
▁작은	-9.03596
▁막	-9.03618
▁LA	-9.03666
▁전세계	-9.03714
▁온	-9.03742
▁한나라당	-9.03994
▁승인	-9.04016
▁인도네시아	-9.04023
▁인구	-9.04029
▁경선	-9.04208
▁대규모	-9.0422
설	-9.04338
D	-9.04382
▁열차	-9.04416
▁어린이	-9.0454
▁H	-9.04543
▁사업	-9.04552
▁입은	-9.04671
▁아닌	-9.04731
▁전체	-9.04732
▁의견	-9.04794
N	-9.04824
▁요청	-9.04842
▁원인	-9.04875
합니다	-9.05147
▁특히	-9.05252
▁국민	-9.05255
▁살고	-9.05296
슨	-9.05303
▁시설	-9.05384
▁성공	-9.05449
▁촉구했다	-9.05514
▁로버트	-9.05746
▁아기	-9.05773
하려는	-9.05844
▁출전	-9.05893
속	-9.05919
▁기록했다	-9.05927
2005.08	-9.05952
▁심각한	-9.05956
▁당신	-9.0605
▁그들의	-9.06097
저	-9.06176
▁비롯	-9.06264
▁대의원	-9.06265
래	-9.06294
졌다	-9.06297
▁나타났다	-9.06323
r	-9.06534
▁데이비드	-9.06779
▁푸틴	-9.06779
▁대신	-9.06789
▁행정부	-9.06819
▁난	-9.06831
I	-9.06899
▁브라운	-9.07068
▁정상	-9.07073
▁총선	-9.07085
▁벌였다	-9.07097
l	-9.07256
▁인쇄	-9.073
▁2002	-9.07328
▁폭력	-9.07399
두	-9.07404
M	-9.07498
▁도움	-9.07541
▁인간	-9.07566
인한	-9.07581
com	-9.07634
만원	-9.07661
▁애	-9.07676
▁예상	-9.07781
이자	-9.07848
▁대회	-9.07886
▁명이	-9.07917
▁경쟁	-9.07976
▁것이라며	-9.08069
판	-9.08118
▁명	-9.08508
▁수치	-9.08527
▁안보	-9.08547
▁놓	-9.08615
▁포함한	-9.08677
▁속	-9.08678
월에	-9.08877
▁선택	-9.08941
▁일을	-9.09123
▁확보	-9.09143
▁비해	-9.09169
▁전투	-9.09262
▁경기에서	-9.09334
▁제재	-9.09454
▁네	-9.09671
▁단	-9.09774
▁지방	-9.09854
통	-9.09934
▁인권	-9.09946
▁타임즈	-9.09951
하라	-9.09972
▁통	-9.10103
▁지역의	-9.10254
▁같다	-9.10325
▁경고	-9.10416
▁받아	-9.10447
▁알리	-9.1048
▁규정	-9.10483
▁헬기	-9.10562
▁일이	-9.10583
▁관계자가	-9.10608
▁통과	-9.10612
▁동	-9.10696
함	-9.10752
▁수입	-9.10777
▁만	-9.10865
▁경고했다	-9.10891
져	-9.10893
작	-9.10897
▁최종	-9.11029
▁들	-9.11138
▁계약	-9.11185
억달러	-9.11288
P	-9.11432
▁바로	-9.11448
▁해외	-9.11624
▁G	-9.11631
▁생각한다	-9.11792
▁사임	-9.11979
▁수준	-9.12058
▁치	-9.12148
R	-9.12372
▁for	-9.12499
로서	-9.12561
색	-9.12591
▁가지고	-9.12597
▁필요하다	-9.12615
민	-9.12629
▁스미스	-9.12663
▁여자	-9.12665
▁국내	-9.12689
▁중인	-9.1283
▁온라인	-9.12866
▁부대	-9.12912
했을	-9.12963
위원회	-9.13004
▁방안	-9.13052
▁항공	-9.13055
기를	-9.1317
▁이라크에서	-9.13303
▁남편	-9.1361
▁대만	-9.13652
▁의원은	-9.13692
▁발견됐다	-9.13764
건	-9.13799
▁반응	-9.13886
▁참석	-9.14024
▁환경	-9.14249
▁메	-9.1434
▁무장	-9.14413
▁내렸다	-9.14559
▁보내	-9.1459
▁서로	-9.14659
▁이에앞서	-9.14891
▁메시지	-9.14891
▁여	-9.14894
▁관리들	-9.14895
▁각각	-9.14901
층	-9.15021
▁디	-9.15164
▁미국인	-9.15274
▁외국인	-9.15306
▁경	-9.15322
▁마이클	-9.15457
▁교수는	-9.15461
량	-9.15508
▁거리	-9.15514
▁2007	-9.15522
▁개선	-9.1554
있는	-9.15739
엔	-9.15836
설명	-9.15954
c	-9.15956
▁암	-9.15973
▁짐바브웨	-9.16024
▁밝힌	-9.16028
퍼센트	-9.16047
론	-9.16151
O	-9.16274
▁부상했다	-9.16325
▁시즌	-9.16333
▁학생	-9.16343
▁주도	-9.1638
▁키	-9.16415
▁유지	-9.16415
▁선고	-9.1656
▁일정	-9.16633
스는	-9.168
▁해군	-9.16819
▁차례	-9.16965
▁없을	-9.1717
▁원문	-9.17203
▁파업	-9.17335
▁경찰에	-9.17388
▁스타	-9.17403
▁인정	-9.17605
▁운영	-9.17652
▁대선후보	-9.17753
▁돌	-9.17906
▁호	-9.18095
▁관계자들은	-9.18112
▁맞	-9.18254
▁같이	-9.1833
▁홍콩	-9.18363
▁주민들	-9.18386
▁평균	-9.18436
▁책임	-9.18456
▁시스템	-9.18662
▁동물	-9.19006
b	-9.19128
▁수단	-9.19172
▁여객기	-9.19232
▁주식	-9.19303
▁시험	-9.19509
기도	-9.19525
▁지명	-9.19575
▁베	-9.1959
달	-9.19692
▁총격	-9.19762
▁양국	-9.19902
f	-9.19955
▁분	-9.20017
▁장관	-9.2004
▁동부	-9.2014
▁종	-9.2016
▁산업	-9.20162
▁미국에서	-9.20248
증	-9.20258
▁추	-9.20306
▁처리	-9.20378
▁500	-9.20457
▁대변인이	-9.20512
▁버스	-9.20553
▁텍사스	-9.20647
▁시아파	-9.2069
▁과정에서	-9.20726
▁사건이	-9.20834
장을	-9.20867
▁중국은	-9.20992
▁본	-9.21147
▁국민들	-9.21237
측	-9.21444
▁유일	-9.21509
▁그런	-9.21548
▁그들이	-9.21583
▁빈	-9.21602
▁번	-9.21693
▁F	-9.2172
▁얼마	-9.21843
년부터	-9.21864
▁배우	-9.21954
독해	-9.22029
▁공연	-9.2206
양	-9.22118
씨는	-9.22142
▁이곳	-9.22165
역	-9.22168
▁연료	-9.22414
하거나	-9.22447
▁여름	-9.225
▁부통령	-9.22714
▁가치	-9.2273
▁강제	-9.22746
▁합니다	-9.22884
▁80	-9.23063
▁환자	-9.23066
▁공습	-9.23107
▁국무장관	-9.23125
▁암살	-9.23126
▁밖에	-9.23233
▁소송	-9.23258
▁임무	-9.23336
▁힐	-9.23407
케	-9.23408
▁출연	-9.23425
▁추락	-9.23493
▁걸	-9.23584
처	-9.23611
▁라디오	-9.2372
▁교전	-9.23752
팀	-9.23753
▁몸	-9.23813
일까지	-9.23843
▁패	-9.23875
▁편	-9.23876
▁외국	-9.23904
▁다양	-9.24079
▁진압	-9.24114
k	-9.24168
줄	-9.24182
▁아프리카	-9.24205
9	-9.24244
▁s	-9.24325
▁비용	-9.24361
▁과거	-9.24412
▁완전	-9.24418
▁개최	-9.24585
▁다리	-9.24652
▁담당	-9.24722
▁브라질	-9.24736
▁회복	-9.24757
▁기대	-9.24962
▁결정했다	-9.25056
▁예상된다	-9.25062
▁감시	-9.25141
▁케냐	-9.25158
▁주재	-9.25276
금	-9.25313
G	-9.25431
▁권리	-9.25624
▁있기	-9.25636
▁국영	-9.2569
▁사퇴	-9.25704
▁않아	-9.25758
▁제작	-9.25793
탄	-9.25811
▁어머니	-9.25822
▁강화	-9.25895
테	-9.25975
▁항공사	-9.26044
▁음식	-9.2614
매	-9.26321
▁인상	-9.26402
▁표	-9.2647
▁만약	-9.26475
▁하기	-9.26498
▁광고	-9.26521
▁친	-9.26551
▁수색	-9.2656
▁주민	-9.26572
▁발견된	-9.26574
▁중동	-9.2659
▁가스	-9.26654
승	-9.26673
▁해안	-9.26687
▁파병	-9.26845
▁걸쳐	-9.26862
▁N	-9.26989
▁일본의	-9.27005
▁벌	-9.27091
하다고	-9.27133
▁왕자	-9.27166
▁건	-9.2717
▁약속	-9.27399
▁발표한	-9.27402
▁별	-9.27445
▁적이	-9.275
영	-9.27503
▁실시	-9.27516
▁바이러스	-9.2755
투	-9.27602
하였다	-9.27696
▁갈	-9.27724
▁요청했다	-9.2779
▁주말	-9.27905
▁T	-9.27946
▁캐나다	-9.28057
▁서부	-9.2807
▁화요일	-9.28124
▁알려진	-9.28134
▁제한	-9.28158
남	-9.28485
▁페	-9.28547
동안	-9.28616
▁커	-9.2866
▁발생했다고	-9.2875
▁변호사	-9.28764
▁밝혔습니다	-9.28783
▁것이라	-9.28808
▁통제	-9.28868
▁받는	-9.28874
▁부상자	-9.28909
이었던	-9.2897
▁아직까지	-9.29023
해왔다	-9.29026
대로	-9.29046
▁있지	-9.29058
▁기소	-9.29093
▁구성	-9.29197
되기	-9.29278
▁탑승	-9.29416
▁크게	-9.29468
▁대해서는	-9.2947
▁정부와	-9.29485
▁희망	-9.29651
표	-9.29726
▁맥	-9.29741
여명	-9.29749
▁마크	-9.29836
▁내려	-9.29896
▁Korea	-9.30104
▁쿠바	-9.30117
▁박	-9.30251
L	-9.30376
▁사람은	-9.30443
▁이유	-9.3064
▁사형	-9.3086
▁발전	-9.30902
류	-9.31028
라며	-9.31117
▁증시	-9.31151
▁직원	-9.31222
▁헌법	-9.31368
힌	-9.31386
본	-9.31425
▁연합	-9.31448
▁아니라고	-9.31451
▁들어	-9.31506
▁2001	-9.31529
▁대상으로	-9.31619
록	-9.31621
▁가졌다	-9.3168
▁사이에	-9.3172
▁공격으로	-9.31779
▁익명	-9.31823
▁자유	-9.3188
▁특별	-9.31953
H	-9.31968
출	-9.32054
▁US	-9.32061
▁플로리다	-9.32062
▁비밀	-9.32071
▁저장	-9.32082
▁남한	-9.32167
생	-9.32238
in	-9.32304
▁사는	-9.32356
▁받지	-9.32372
)'	-9.324
▁한다는	-9.32424
일부터	-9.32449
▁항공기	-9.32629
▁병사	-9.32858
▁올랐다	-9.32874
an	-9.32977
▁변호사는	-9.33047
곳	-9.33062
▁인	-9.33229
▁상대로	-9.33277
▁최악	-9.33408
▁작품	-9.33426
▁P	-9.33428
▁후세인	-9.33447
▁접근	-9.33448
▁엘	-9.33542
▁예	-9.33661
es	-9.33726
▁책	-9.33798
▁계획이다	-9.33821
▁D	-9.33908
업	-9.33988
▁35	-9.34033
▁필리핀	-9.34086
▁찾아	-9.3433
or	-9.34397
▁여론조사	-9.34459
▁후보는	-9.345
and	-9.34518
▁올라	-9.34565
▁재판	-9.34595
지역	-9.34765
었다고	-9.34797
▁씨	-9.34802
▁확인했다	-9.34804
▁평가	-9.34814
▁받게	-9.34824
▁하원	-9.34875
h	-9.34988
▁EU	-9.35004
▁파리	-9.3504
▁장면	-9.3505
▁후보가	-9.35172
락	-9.35346
▁차베스	-9.35464
▁희생자	-9.35529
▁차이	-9.35629
▁임기	-9.35725
▁것과	-9.35734
퍼	-9.35805
▁남성	-9.35815
▁그것은	-9.35831
▁만나	-9.35898
▁누	-9.35992
▁매년	-9.36052
시켜	-9.36137
▁그룹	-9.3614
▁동료	-9.36193
▁밝히지	-9.36228
▁숨지고	-9.36271
▁신고	-9.36405
▁집단	-9.36469
른	-9.36501
▁학생들	-9.3652
만이	-9.36615
▁사과	-9.3668
▁머리	-9.36722
았다	-9.36725
▁인기	-9.36753
▁보여주	-9.36753
튼	-9.36811
▁감염	-9.36832
▁무장단체	-9.36864
▁지진	-9.36951
▁달리	-9.36996
▁가자지구	-9.37019
▁긴장	-9.37046
▁제공	-9.37053
▁질문	-9.37061
▁부모	-9.37105
▁전기	-9.37166
▁보냈다	-9.37179
▁국회	-9.3722
▁70	-9.37312
▁전국	-9.37313
▁붕괴	-9.37341
▁90	-9.37372
▁거부	-9.3743
▁의미	-9.37508
▁뇌	-9.37547
▁수많은	-9.37558
▁병	-9.37574
▁중에	-9.37641
▁파괴	-9.37646
이었다고	-9.3787
▁고통	-9.37893
▁위해서는	-9.38034
50	-9.38113
▁세력	-9.38245
있다	-9.38246
▁허리케인	-9.38267
▁따른	-9.38273
예	-9.38385
하기도	-9.38428
▁막기	-9.38429
▁불만	-9.38467
▁질	-9.38517
▁설치	-9.38793
▁권력	-9.38992
▁다음달	-9.39005
▁언급했다	-9.39008
▁주지사는	-9.39023
▁신원	-9.39055
▁향해	-9.39078
중인	-9.3911
▁못하고	-9.39115
▁잡	-9.39145
▁45	-9.3926
▁기지	-9.39278
▁목표	-9.39285
▁금	-9.39326
▁위성	-9.39341
▁아내	-9.39398
명으로	-9.39414
▁상황이	-9.395
등	-9.39593
센터	-9.39624
▁샤	-9.39653
▁지나	-9.39699
▁나머지	-9.39701
▁의료	-9.39703
한다는	-9.39703
료	-9.39725
▁허가	-9.39811
갈	-9.39841
▁사람들을	-9.39847
22	-9.39856
▁참가	-9.39907
▁on	-9.39926
▁되고	-9.39972
▁넘	-9.39986
▁나왔다	-9.40025
▁제품	-9.40031
▁군대	-9.40083
▁명령	-9.40183
되	-9.4022
▁논쟁	-9.40259
액	-9.40376
▁이명박	-9.40426
▁고용	-9.40486
▁사실이	-9.40598
▁칼	-9.40663
▁앤	-9.4073
▁따라	-9.40946
▁만들어	-9.40953
st	-9.40957
▁강한	-9.40965
개국	-9.41025
▁토	-9.41085
▁충격	-9.41159
▁1000	-9.4125
K	-9.41259
▁되었다	-9.41263
ar	-9.41284
▁진행되	-9.4134
▁버	-9.41424
여명이	-9.41446
▁나온	-9.41579
▁못한	-9.4162
▁위반	-9.41693
▁두고	-9.41703
▁복귀	-9.4181
▁베네수엘라	-9.41891
▁이끄는	-9.41892
▁적어도	-9.41928
▁민주주의	-9.42013
▁인수	-9.42043
▁수천명	-9.42319
▁유권자들	-9.42404
▁야후	-9.42504
▁사랑	-9.42598
▁외무부	-9.42638
▁사원	-9.42694
▁기사	-9.42696
▁인터뷰	-9.42768
왔다	-9.42806
▁수출	-9.42827
▁자료	-9.42905
▁무역	-9.42928
▁나이	-9.4295
였습니다	-9.4298
▁상대	-9.43046
▁외교	-9.43064
쳐	-9.43089
▁수십	-9.43113
▁여론	-9.4317
▁선출	-9.43262
▁월요일	-9.4334
▁작업을	-9.43346
▁성폭행	-9.43371
▁어느	-9.43385
▁끝에	-9.43499
▁로마	-9.43523
▁보고서는	-9.43546
되었습니다	-9.43548
▁거대	-9.43645
▁가능한	-9.43842
▁되어	-9.43891
▁칸	-9.43982
▁배치	-9.43987
▁전력	-9.44043
▁마련	-9.44078
들에	-9.44079
le	-9.44167
▁되지	-9.44264
▁체포됐다	-9.44425
▁병원에	-9.44426
▁시리아	-9.44664
복	-9.44676
시키는	-9.44688
가지	-9.44839
▁북핵	-9.44889
▁진	-9.44924
▁북한에	-9.44992
▁이래	-9.44999
▁마약	-9.45002
독	-9.45039
▁정부에	-9.45084
골	-9.45194
▁피해자	-9.45205
했다며	-9.45206
▁촬영	-9.4528
▁사람들에게	-9.45297
림	-9.45338
품	-9.45404
▁압력	-9.45613
▁목숨	-9.45651
▁대비	-9.45675
▁임시	-9.45719
톤	-9.45769
단체	-9.45785
▁해리	-9.45882
▁살인	-9.45983
▁비슷	-9.46008
▁실험	-9.46103
▁쇼	-9.46164
▁안정	-9.46183
▁루	-9.46197
씨	-9.4627
▁승객	-9.46286
▁흑인	-9.4642
편	-9.46449
▁패배	-9.46457
▁쿠	-9.46507
▁웹사이트	-9.466
▁때까지	-9.46618
▁선정	-9.46749
▁아주	-9.46862
▁섬	-9.46871
거리	-9.46893
▁정도로	-9.4692
자들은	-9.47026
▁사항	-9.47054
▁사건은	-9.47131
커	-9.47148
▁주지사	-9.47152
▁잘못	-9.47197
▁밝혀지지	-9.47222
▁개혁	-9.47238
▁국방장관	-9.47252
▁중앙	-9.47255
▁시민	-9.47297
▁인물	-9.47325
▁유권자	-9.47435
▁글	-9.47528
▁폭력사태	-9.47567
▁착륙	-9.476
▁팬들	-9.47614
▁되	-9.47852
▁변	-9.47932
▁어떠한	-9.47976
▁접촉	-9.47976
▁사우디	-9.4798
▁선언	-9.48213
▁교회	-9.4829
만한	-9.48308
▁혼란	-9.4836
▁사진을	-9.48363
▁도움이	-9.48414
업체	-9.48534
자회담	-9.48586
▁예측	-9.48728
▁식량	-9.48754
▁숨진	-9.48793
백	-9.4898
▁위원회	-9.49013
▁미군은	-9.49042
▁모델	-9.49141
▁후에	-9.49198
▁여성이	-9.49207
됐	-9.49212
▁부부	-9.49291
▁교수	-9.49342
▁이달	-9.49408
▁확대	-9.49558
▁베컴	-9.4956
▁외무장관	-9.49568
▁입고	-9.49627
▁문화	-9.49775
▁오바마가	-9.49826
▁무장세력	-9.49869
▁주민들이	-9.49928
▁이집트	-9.4995
▁비판	-9.49962
▁대표는	-9.49971
▁담	-9.50039
B	-9.50113
▁퍼	-9.50241
▁곳에서	-9.50345
▁어려움	-9.50359
en	-9.50366
▁추진	-9.5038
▁오른	-9.50397
▁업체	-9.50502
하겠다	-9.50511
▁넘는	-9.50525
▁K	-9.50571
▁주민들은	-9.50596
▁제기	-9.50619
였다고	-9.508
▁300	-9.50878
되었다고	-9.50944
▁작년	-9.51038
▁미군이	-9.51069
▁로켓	-9.51152
▁긴급	-9.51168
▁해야	-9.51174
▁있음	-9.51222
▁아베	-9.51232
▁상원의원이	-9.51259
베	-9.5132
▁발생해	-9.51341
▁등의	-9.51383
▁현장	-9.51408
▁설명	-9.51417
▁집중	-9.51433
▁부분	-9.51476
합	-9.51528
▁천	-9.51624
5000	-9.51753
월부터	-9.51958
▁출마	-9.51991
▁신화통신	-9.52008
▁구속	-9.52019
▁시간이	-9.52067
▁저는	-9.52177
▁제조	-9.5222
각	-9.52221
▁수요일	-9.5224
▁만큼	-9.52298
기로	-9.52473
불	-9.52493
▁기관	-9.52507
▁바란다	-9.52651
p	-9.52677
망	-9.52773
리아	-9.52806
▁군인	-9.52818
▁내무부	-9.52837
▁가질	-9.52881
▁추정	-9.52881
▁질문에	-9.5293
F	-9.52991
▁시기	-9.53004
▁수백	-9.53015
▁소리	-9.53037
▁대법원	-9.53088
▁대중	-9.53106
▁윌리엄	-9.53118
▁인사	-9.5314
▁사상	-9.5321
▁선거에서	-9.53224
▁체포했다	-9.53231
20	-9.53251
▁이라크에	-9.53288
▁대해서	-9.53307
▁주장하고	-9.53342
▁소말리아	-9.534
▁총기	-9.53442
▁그들	-9.53473
▁도착	-9.53535
▁이것은	-9.53545
▁삶	-9.53623
▁산불	-9.53643
▁소재	-9.53656
▁유죄	-9.53661
▁카운티	-9.53666
▁총재	-9.5368
▁빨	-9.53725
렸다	-9.53751
▁구매	-9.53794
▁관광객	-9.53798
▁항의	-9.53805
▁자국	-9.53816
▁I	-9.53828
on	-9.53878
▁수익	-9.5394
메	-9.53953
▁집행	-9.54086
▁유명한	-9.54118
때	-9.54186
▁잠	-9.54205
쿠	-9.5425
▁블레어	-9.54456
▁일자리	-9.54471
▁임명	-9.54566
▁이밖에	-9.54649
상을	-9.54662
▁관계자들	-9.54685
▁출발	-9.54728
▁마리	-9.54933
▁당선	-9.55107
겠다고	-9.5522
▁관해	-9.55231
▁젊은	-9.55239
▁BBC	-9.553
▁넣	-9.55335
▁정권	-9.55367
▁목적	-9.5538
▁마음	-9.55484
▁해제	-9.55544
▁씨는	-9.55658
▁직원들	-9.55813
▁귀	-9.56022
▁f	-9.56057
▁올메르트	-9.56144
▁않았지만	-9.56153
▁게이츠	-9.56153
▁집에서	-9.56158
▁자체	-9.56167
▁야	-9.56257
▁군부	-9.56285
▁존스	-9.56298
채	-9.56367
▁대화	-9.5639
▁그리스	-9.56444
▁합의했다	-9.56648
▁운행	-9.56827
▁M	-9.56874
대가	-9.56887
▁시행	-9.56899
▁된다고	-9.56985
▁일요일	-9.56991
▁스피어스	-9.56999
▁청와대	-9.56999
▁몇몇	-9.57001
▁직후	-9.57008
▁수천	-9.57022
▁한국은	-9.5707
▁세금	-9.57081
▁지역을	-9.57107
▁연합군	-9.57171
▁약간	-9.57183
▁탄	-9.57228
▁전문가	-9.57267
▁검토	-9.57318
▁중이다	-9.57336
먼	-9.57528
▁파견	-9.57566
▁없다며	-9.57593
▁나무	-9.57613
▁그에게	-9.57817
▁없어	-9.57833
▁제임스	-9.57859
▁코소보	-9.57861
▁실패	-9.57888
▁물론	-9.57895
▁등을	-9.57931
sp	-9.57938
▁나토	-9.57954
▁시카고	-9.57966
▁고문	-9.57999
it	-9.58011
▁수가	-9.58017
집	-9.58045
▁심장	-9.58164
▁UN	-9.58252
▁병원에서	-9.58315
▁L	-9.5849
▁말레이시아	-9.5856
빌	-9.58615
었습니다	-9.58622
▁제거	-9.58673
▁노조	-9.58747
▁대형	-9.58798
▁것인지	-9.58807
▁경험	-9.58835
다른	-9.58865
▁가까	-9.58866
▁절차	-9.58891
리자	-9.58978
▁개의	-9.59067
▁주가	-9.59159
렌	-9.59176
▁반대하는	-9.5924
▁들고	-9.59388
▁취소	-9.59403
▁자리	-9.59554
▁나타나	-9.59608
▁항상	-9.59629
▁선두	-9.59632
▁백	-9.59748
▁남북	-9.59788
▁연장	-9.59801
▁E	-9.59826
▁허용	-9.60002
▁약물	-9.60107
▁The	-9.60109
▁윌리엄스	-9.60147
▁주의	-9.60292
▁이란이	-9.60358
▁통신	-9.60376
▁도쿄	-9.60435
▁분쟁	-9.60442
입	-9.60487
▁원자로	-9.60509
▁좀	-9.60552
▁상당	-9.60563
▁최고의	-9.6064
박	-9.6067
▁공군	-9.60681
▁교통	-9.607
▁당했다	-9.60701
▁자주	-9.60707
▁관	-9.60739
▁블로그에	-9.60747
▁보장	-9.60809
▁압박	-9.60841
▁굴	-9.60906
▁판	-9.60985
▁경제적	-9.60996
현	-9.61024
▁있는지	-9.61025
쉬	-9.6114
▁감	-9.61282
▁곳에	-9.61314
▁싶다	-9.61341
미국	-9.61361
▁비상사태	-9.61388
▁국제사회	-9.61397
▁아무런	-9.61398
▁경찰과	-9.614
▁찰스	-9.61402
▁조금	-9.61422
▁보기	-9.61437
▁도중	-9.61454
▁영어	-9.61478
대의	-9.6149
▁조건	-9.61573
▁나오	-9.61601
시키기	-9.61676
▁집회	-9.6171
▁헤	-9.61728
런	-9.61761
▁수정	-9.61765
▁지지자들	-9.6203
▁위원장	-9.62134
추	-9.62138
▁부인했다	-9.62218
▁오랫동안	-9.62286
▁국립	-9.6229
▁감축	-9.62293
▁동결	-9.62304
▁전달	-9.62335
10	-9.62367
격	-9.62407
▁목표로	-9.62591
▁캐	-9.62638
▁사상자	-9.62737
▁휴대폰	-9.62789
▁종교	-9.62842
▁자녀	-9.62853
▁대응	-9.62897
▁단지	-9.63014
다며	-9.63078
샤	-9.63103
▁32	-9.63104
▁소녀	-9.6319
▁겪고	-9.63196
▁떨어져	-9.63196
▁카메라	-9.63251
음	-9.63282
▁치안	-9.63301
▁폐	-9.63326
▁구호	-9.63336
결	-9.63354
▁진출	-9.6338
▁날씨	-9.63472
▁유명	-9.63477
시키고	-9.63508
▁떠나	-9.63515
▁정말	-9.6354
▁높이	-9.63717
▁전시	-9.63719
▁이라크전	-9.63738
▁결	-9.63754
▁왕	-9.63826
측은	-9.6394
▁받기	-9.64038
W	-9.64095
▁극	-9.64111
▁엄마	-9.64113
분기	-9.64138
▁대피	-9.64309
▁보이는	-9.64337
▁분석	-9.644
▁일반	-9.64416
회사	-9.64424
30	-9.64503
▁소식통은	-9.64534
▁미래	-9.64593
▁보이고	-9.64609
▁게	-9.64694
▁그중	-9.64851
▁과정	-9.64853
▁버지니아	-9.64906
▁수석	-9.64908
▁여당	-9.64917
▁나섰다	-9.65039
▁마드리드	-9.65039
▁무가베	-9.65039
▁배럴	-9.65045
로써	-9.65067
▁판단	-9.65071
▁나타냈다	-9.65099
기구	-9.6512
▁군인들	-9.65128
만명이	-9.65179
▁감사	-9.65183
▁실수	-9.65202
▁단계	-9.65206
▁사망했으며	-9.6522
▁시작됐다	-9.65232
▁전까지	-9.65303
범	-9.65422
▁매일	-9.65478
▁현장에	-9.65622
▁내부	-9.6565
태	-9.65666
▁소식을	-9.65681
▁죽	-9.65792
▁생	-9.65824
▁다이애나	-9.65906
광	-9.65913
▁폭풍	-9.65946
▁태풍	-9.65977
▁내각	-9.66054
이지만	-9.66169
▁끝	-9.66169
자들이	-9.66242
▁소식	-9.66286
▁방문한	-9.66453
장이	-9.66489
▁경찰관	-9.66502
▁관광	-9.66525
자인	-9.66586
▁의한	-9.66594
▁전통	-9.66659
▁가량	-9.66664
▁사무실	-9.66682
언	-9.66733
▁이미지	-9.66741
▁북한과	-9.66769
▁작업	-9.66775
▁오래	-9.66801
▁연속	-9.66829
▁낮은	-9.66917
▁스포츠	-9.66917
▁찾기	-9.66917
▁태	-9.66932
▁마무리	-9.66953
▁참여	-9.66962
목	-9.67094
▁영국의	-9.6717
▁다쳤다	-9.67188
▁하며	-9.67237
▁제출	-9.67312
▁증가했다	-9.67321
▁망명	-9.67368
▁급	-9.67405
▁대책	-9.67438
▁수니파	-9.67469
▁정상회담	-9.67609
▁남성이	-9.67622
▁고양이	-9.67657
▁넘어	-9.67757
▁옷	-9.67766
▁대사	-9.67836
▁이와같	-9.67869
▁정확한	-9.67869
▁캠프	-9.67869
▁환영	-9.67873
▁머물	-9.6788
▁요	-9.67894
페	-9.67897
▁전자	-9.67979
▁유로	-9.67993
▁연설에서	-9.68134
이란	-9.68173
▁위기에	-9.68187
▁약속했다	-9.68349
▁돼	-9.68368
말	-9.68506
절	-9.68515
세기	-9.68576
▁노동	-9.68605
랑	-9.68649
었으며	-9.68656
▁보안관	-9.68659
▁최소한	-9.68663
다는	-9.68715
▁처벌	-9.68834
▁조종사	-9.68884
협회	-9.68897
▁성인	-9.69038
▁힐튼	-9.69056
▁도전	-9.69067
▁않겠다	-9.69161
▁걱정	-9.69267
▁목요일	-9.69351
▁홍수	-9.69416
▁나가	-9.69425
외	-9.6958
▁시작된	-9.69606
▁대화를	-9.69698
▁지도자들	-9.69735
▁빠르	-9.69806
▁알려져	-9.69806
▁교체	-9.69818
▁아바스	-9.69836
▁잉글랜드	-9.69885
▁기억	-9.69919
▁만든	-9.69941
▁관련해	-9.70058
회의	-9.70065
▁떨어졌다	-9.70101
▁방해	-9.70136
▁J	-9.70186
하지만	-9.70208
름	-9.70211
▁근무	-9.70255
▁사기	-9.70296
▁시민들	-9.70329
했는데	-9.70351
▁차지했다	-9.70372
으로서	-9.70446
▁150	-9.70485
▁센터	-9.70518
▁애플	-9.70522
▁중이라고	-9.70562
▁가수	-9.70582
되면서	-9.70589
▁삼	-9.70618
▁한미	-9.70689
냐	-9.70717
▁민병대	-9.70735
▁그렇게	-9.70782
▁장난감	-9.70786
▁네팔	-9.70788
▁진입	-9.70792
▁하락했다	-9.70794
▁화성	-9.70849
싼	-9.70852
▁뿐	-9.70868
▁속에	-9.70878
▁테러로	-9.70888
ID	-9.70889
▁동시	-9.7094
▁비상	-9.71027
▁맞아	-9.71058
▁선수들	-9.71073
▁도착했다	-9.71092
▁마감	-9.71208
▁집권	-9.71245
▁실제	-9.71251
▁인정했다	-9.71318
▁발생할	-9.71358
▁허	-9.71378
▁투	-9.71388
▁전략	-9.714
▁과학	-9.71435
▁임	-9.71441
▁성적	-9.71477
션	-9.71557
▁얼굴	-9.71565
▁협의	-9.71652
▁순간	-9.71745
▁스티브	-9.71778
▁개봉	-9.71788
▁표현	-9.72037
▁고래	-9.72356
▁중심	-9.72378
▁효과	-9.72429
개월간	-9.72431
▁탁신	-9.72471
술	-9.72516
▁분노	-9.7255
▁여성들	-9.72665
▁공장	-9.72756
▁체	-9.72759
▁높다	-9.72772
▁빠른	-9.72772
▁보이지	-9.72779
▁범인	-9.728
▁손실	-9.72804
▁대표팀	-9.7281
▁고든	-9.72832
▁승무원	-9.72833
▁알려지	-9.72835
▁단어	-9.72936
▁프라이머리	-9.73032
▁실시된	-9.73039
리스	-9.73054
▁둔	-9.73161
▁FBI	-9.73164
▁강도	-9.73271
▁조정	-9.73291
▁장기	-9.73378
▁소년	-9.73436
▁소지	-9.73475
▁창	-9.73488
지도	-9.73569
▁등록	-9.73588
▁박사	-9.73646
센	-9.73664
것	-9.73679
책	-9.73728
▁법적	-9.73752
센트	-9.7378
▁찾는	-9.73782
▁일어난	-9.73786
다면	-9.738
▁개입	-9.73805
▁기자는	-9.73838
▁네덜란드	-9.7385
▁사이트	-9.73916
▁살해한	-9.73929
경기	-9.73929
▁연구진	-9.73971
▁뉴	-9.74023
▁이용해	-9.74043
▁대표단	-9.74072
볼	-9.74197
정부	-9.74227
▁시상식	-9.74232
▁수는	-9.74243
▁민간	-9.74292
됐지만	-9.74324
인지	-9.74368
▁누구	-9.74389
주의	-9.7439
▁못할	-9.74484
▁투입	-9.7451
▁밝혔	-9.74523
▁장소	-9.74567
▁관계자	-9.74571
▁가족들	-9.74589
▁휴가	-9.74674
▁연구소	-9.74687
▁회담에서	-9.74694
▁회담은	-9.74749
▁이전에	-9.74785
칠	-9.74791
▁크리스토퍼	-9.74804
▁분위기	-9.74805
▁하워드	-9.7481
▁있었으며	-9.74813
▁1999	-9.74823
▁맺	-9.74861
▁여왕	-9.74903
우리는	-9.74978
▁결혼식	-9.75003
립	-9.75049
▁당선인	-9.75121
▁부정	-9.75128
▁국가들	-9.75154
마다	-9.75202
▁벤	-9.75218
주년	-9.75229
▁목소리	-9.75242
▁수백명	-9.75334
▁지배	-9.75407
▁긴	-9.75438
령	-9.7545
▁아마	-9.75545
▁찬성	-9.75596
▁정당	-9.756
▁목	-9.75607
으면	-9.75608
▁위치	-9.75649
월까지	-9.75726
▁받았	-9.75796
▁유세	-9.75797
▁경계	-9.75808
▁저녁	-9.75834
▁테이프	-9.75834
▁스스로	-9.75836
창	-9.75838
▁400	-9.75848
▁울	-9.75863
▁홍보	-9.75866
▁조작	-9.75882
▁우크라이나	-9.75883
▁지출	-9.75899
▁핵심	-9.75904
▁영상	-9.75943
▁후반	-9.76012
▁be	-9.7609
▁의원이	-9.76236
▁문서	-9.7632
▁대통령에게	-9.76335
쳤다	-9.76371
▁의혹	-9.76394
▁운전	-9.76464
블	-9.76503
▁완화	-9.76552
머	-9.76567
▁그것	-9.76586
▁집계	-9.76653
▁현장에서	-9.7677
▁징역	-9.76821
기간	-9.76824
▁이수지	-9.76886
함으로써	-9.76889
링	-9.7692
▁기후	-9.76929
▁의장	-9.77075
▁노래	-9.77116
▁총선에서	-9.77117
니다	-9.77123
▁나와	-9.77224
▁손상	-9.77234
th	-9.77343
▁시위자들	-9.77408
▁차지	-9.77422
시키	-9.77443
▁얻었다	-9.77478
cat	-9.77516
▁수행	-9.77529
자가	-9.77543
▁중국이	-9.7758
▁어린	-9.77592
▁선포	-9.77602
▁후보에	-9.77666
백만	-9.77709
관계	-9.77809
▁사무총장은	-9.77821
▁부동산	-9.77928
joins	-9.77936
▁의심	-9.77994
▁즉시	-9.78
▁축하	-9.7809
▁아부	-9.78126
▁후보로	-9.78185
▁바다	-9.78189
이라	-9.78212
▁난민	-9.78228
il	-9.7824
▁기자회견	-9.78433
▁보여	-9.78434
▁유사	-9.78459
▁당한	-9.78461
▁구성된	-9.78496
▁듯	-9.7863
▁이끌	-9.78647
▁이해	-9.7878
▁소비자	-9.78946
▁축구	-9.78979
▁언제	-9.78979
▁자살폭탄테러	-9.78987
▁쿠르드	-9.78987
cnn	-9.78992
▁콘돌	-9.78994
▁침체	-9.78995
▁구글	-9.79009
▁향	-9.79011
담	-9.79021
▁사례	-9.79024
▁확실히	-9.7903
▁오랜	-9.79032
▁귀국	-9.79036
▁의료진	-9.79052
▁벌금	-9.79067
▁재산	-9.7907
하길	-9.79084
안을	-9.79098
했는지	-9.79138
국가	-9.79158
준	-9.79284
▁보좌관	-9.79337
▁저지	-9.79449
▁위험한	-9.79457
혼	-9.79473
시설	-9.79475
▁위해서	-9.7949
▁U	-9.79603
▁복제	-9.79626
▁웹사이트에	-9.79653
▁가격이	-9.79703
▁증언	-9.79882
▁민	-9.79909
턴	-9.79926
▁집에	-9.8001
▁할리우드	-9.80048
▁매들린	-9.80067
▁영국군	-9.80068
▁먼저	-9.80073
▁점령	-9.80087
▁담배	-9.80088
▁크리스마스	-9.80114
▁원조	-9.8014
시킨	-9.8014
▁대단	-9.80161
▁올렸다	-9.80182
명에	-9.80275
▁심슨	-9.80283
플	-9.80289
▁외교부	-9.803
맨	-9.80345
▁시리즈	-9.80365
방송	-9.80368
▁놀라	-9.80407
▁c	-9.80503
▁걸어	-9.80651
▁제외	-9.80774
▁측	-9.80888
율	-9.80919
▁알게	-9.8097
▁술	-9.80979
▁확산	-9.81011
▁2009	-9.8102
▁말하고	-9.81068
▁소장	-9.81074
▁성공했다	-9.81083
▁모습	-9.81108
▁상황에서	-9.81201
▁깊	-9.81265
▁반발	-9.81269
▁한반도	-9.81291
▁기타	-9.81296
달러를	-9.81368
▁실종	-9.81382
ly	-9.8147
▁북	-9.81512
▁움직임	-9.81557
▁터키군	-9.81616
주간	-9.81654
▁보낸	-9.81662
▁지진으로	-9.81702
▁임신	-9.81723
▁능력	-9.81761
▁문제로	-9.81788
▁실시한	-9.81821
▁보건	-9.81839
▁지수는	-9.81892
▁R	-9.81901
▁NASA	-9.81913
▁요구한	-9.81916
▁가능	-9.82013
▁그와	-9.82018
▁대부분은	-9.82086
▁준	-9.82196
▁피터	-9.82221
▁토요일	-9.82253
▁모하메드	-9.82254
▁국제유가	-9.82254
▁심리	-9.82265
▁니콜라	-9.82299
▁이틀	-9.82436
클	-9.82544
▁성화	-9.82554
▁주는	-9.82628
▁주로	-9.82665
▁일부는	-9.82718
수가	-9.82719
▁처	-9.82867
▁전망이	-9.829
▁한번	-9.82947
축	-9.83005
▁영	-9.83067
▁숨	-9.83091
▁조사하고	-9.8312
▁그러	-9.83132
레이	-9.83141
▁이곳에서	-9.83183
40	-9.83245
▁교	-9.83323
▁http	-9.83362
Total	-9.83364
▁엘리자베스	-9.83364
code	-9.83365
▁핵실험	-9.83367
▁육군	-9.83385
▁프로젝트	-9.83405
▁상황에	-9.83412
▁현대	-9.83418
▁물질	-9.83524
▁고속도로	-9.8356
▁참석한	-9.83566
▁구체적인	-9.83574
▁들었다	-9.83584
▁왜	-9.83585
▁일본은	-9.83586
▁전문	-9.83633
▁요구하는	-9.83639
▁절반	-9.83679
빈	-9.83686
활동	-9.83706
딘	-9.83715
▁연결	-9.83728
60	-9.83744
▁평양	-9.83768
▁수용	-9.83808
▁고려	-9.83947
ce	-9.84002
▁따	-9.84003
▁대사는	-9.84166
▁지불	-9.84173
▁프리	-9.84182
▁말한	-9.84241
▁해고	-9.84243
▁형	-9.84264
▁수감	-9.84441
▁법률	-9.84456
▁일어나	-9.84479
▁싱가포르	-9.84488
▁좋지	-9.84488
2009.06	-9.8449
▁사이클론	-9.84491
▁타격	-9.84508
▁나달	-9.8457
▁입국	-9.84598
▁해당	-9.84737
▁무사	-9.84743
하려고	-9.84811
▁들어가	-9.84894
섬	-9.84895
▁본부	-9.84917
▁근	-9.84936
▁박물관	-9.84958
▁자신들이	-9.84972
▁미국에	-9.85008
▁만들었다	-9.8502
은행	-9.85058
▁동의	-9.85068
마일	-9.8509
해졌다	-9.85123
▁가는	-9.85125
▁시대	-9.85264
스타	-9.85292
▁마치	-9.85328
▁남북한	-9.85397
▁테	-9.85409
▁이들이	-9.8541
▁폭	-9.85625
▁DNA	-9.85627
▁향후	-9.85637
▁비자	-9.85641
▁기반	-9.85677
▁않기	-9.85705
▁말합니다	-9.85724
▁압둘라	-9.85725
▁작가	-9.85765
▁아르헨티나	-9.85765
▁쉽게	-9.85808
ation	-9.85852
▁트럭	-9.86075
었던	-9.86092
지에	-9.86196
▁되면	-9.86248
▁부패	-9.86306
달러에	-9.86349
사건	-9.86412
씩	-9.86436
▁접	-9.86542
▁사용할	-9.86676
▁테러가	-9.86683
▁중국에서	-9.86707
위에	-9.86721
▁사용하는	-9.8673
▁용의자들	-9.86739
▁포르투갈	-9.86774
▁케네디	-9.86778
▁페르베	-9.86785
▁소프트웨어	-9.8685
▁잔해	-9.8688
▁결과가	-9.86885
▁공개했다	-9.86907
▁통화	-9.86928
▁영향력	-9.86979
▁O	-9.87062
▁개정	-9.87063
▁것처럼	-9.87079
▁지지자	-9.87082
▁길이	-9.87215
▁대상	-9.8728
▁영국에서	-9.8736
성이	-9.87375
▁확신	-9.87438
북	-9.87531
▁주고	-9.87677
▁내린	-9.87825
▁연루	-9.87841
▁교황	-9.87896
▁문제는	-9.87905
!	-9.87936
▁얘기	-9.87936
▁콘서트	-9.87936
▁폭행	-9.8795
▁드러났다	-9.87975
▁자연	-9.87978
▁직면	-9.87979
▁원유	-9.87997
▁웹	-9.88035
▁포드	-9.88042
▁진정	-9.8807
▁밖으로	-9.88081
▁경기에	-9.8809
▁지지율	-9.88097
열	-9.88148
시장	-9.88176
▁자격	-9.88205
ad	-9.88213
▁밀	-9.88246
▁않으면	-9.88271
▁경선에서	-9.88273
▁수반	-9.88317
▁하다	-9.88324
▁신청	-9.88325
흐	-9.88328
▁태도	-9.88355
▁re	-9.88429
▁슈	-9.88475
ic	-9.88534
▁그린	-9.88534
차기	-9.88564
▁제시	-9.88616
▁실제로	-9.88632
▁가정	-9.88656
오는	-9.88688
▁37	-9.88698
▁설립	-9.88747
▁체포된	-9.8879
자는	-9.88863
▁생존자	-9.88918
▁쉬	-9.88931
▁총리와	-9.89024
▁페더러	-9.89113
▁협조	-9.89113
▁휘발유	-9.89113
현지시각	-9.89113
▁규제	-9.89114
▁로봇	-9.89114
스러운	-9.89136
▁입양	-9.89139
▁폭우	-9.89144
사는	-9.89206
위로	-9.89413
▁안보리	-9.89488
▁자산	-9.89507
▁전문가들	-9.89533
▁정부군	-9.89553
▁참	-9.89602
▁파타	-9.89617
힐	-9.89634
▁한국과	-9.89682
▁속에서	-9.89749
▁요구하고	-9.89761
▁오픈	-9.89834
▁당선자	-9.89858
▁만들	-9.8986
▁라고	-9.90007
▁철회	-9.90008
▁주에서	-9.90011
▁동원	-9.90027
▁목격자들	-9.9011
킬	-9.90112
규	-9.90208
▁오하이오	-9.90251
▁빠져	-9.90263
▁며칠	-9.90273
▁뛰어	-9.90291
항	-9.90296
▁1997	-9.90305
▁영변	-9.90308
▁화산	-9.9031
▁나쁜	-9.90315
▁유럽연합	-9.90327
kg	-9.9033
▁축제	-9.90332
▁송	-9.90453
▁필	-9.90454
▁초기	-9.90483
▁우주선	-9.90492
▁외부	-9.90498
▁작성	-9.90552
▁미국인들	-9.90562
▁기구	-9.90572
▁모른다	-9.90581
▁상품	-9.90685
▁단체는	-9.90765
총	-9.9082
손	-9.90824
되면	-9.90884
쯤	-9.9091
▁풀	-9.90939
▁중국과	-9.91026
▁속도	-9.91185
▁연락	-9.91193
▁스티븐	-9.91301
▁중에는	-9.91402
▁자세	-9.91448
▁소비	-9.91456
스터	-9.91476
▁리버풀	-9.91508
▁론스타	-9.91511
▁벌어진	-9.91512
▁음모	-9.91522
▁반정부	-9.91548
▁신속	-9.91551
족	-9.91631
▁공식적으로	-9.91634
▁소개	-9.91705
▁밝혀	-9.91731
▁랭킹	-9.91796
▁의장은	-9.9189
▁중요하다	-9.91907
▁유가	-9.91966
악	-9.91987
▁""	-9.9199
애	-9.92017
▁장치	-9.92042
▁소유	-9.9222
▁생명	-9.92224
드는	-9.92259
▁협정	-9.92272
▁입원	-9.92432
리는	-9.92471
▁이혼	-9.92498
re	-9.92519
▁격	-9.92545
▁이것이	-9.92559
순	-9.92592
표를	-9.9263
▁협회	-9.92636
▁촉구	-9.92645
▁잭슨	-9.92727
▁훨씬	-9.92727
▁휴전	-9.92729
▁CBS	-9.92731
▁가득	-9.92734
▁1998	-9.92738
▁결론	-9.92741
▁침해	-9.92757
▁핵시설	-9.92764
▁루이스	-9.92781
▁요구를	-9.92803
▁밑	-9.92832
▁지급	-9.9285
▁역사적	-9.92865
▁벌인	-9.92871
▁존재	-9.92891
▁예방	-9.92906
▁포함해	-9.92999
▁언급하지	-9.93029
▁스위스	-9.93173
렸	-9.93231
거래	-9.93357
▁모습이	-9.93362
▁팬	-9.93421
▁광산	-9.9359
봉	-9.93617
▁클럽	-9.93628
▁거주하는	-9.93705
▁평	-9.93778
▁내전	-9.93778
서는	-9.93791
▁즉	-9.93807
▁토론	-9.93888
▁쥐	-9.93918
▁무릎	-9.93962
▁쿠데타	-9.93962
▁김정일	-9.93962
▁얼음	-9.93972
▁토니	-9.93982
▁1990	-9.93995
▁격차	-9.94
▁대출	-9.94015
달하는	-9.94027
틀	-9.94028
한다며	-9.94071
ra	-9.94079
▁진술	-9.94112
▁밀란	-9.94178
▁행진	-9.94227
▁몰	-9.94235
▁처음이다	-9.94259
▁투자자들	-9.94282
▁죽음	-9.94311
▁방문할	-9.94351
▁잃었다	-9.94352
▁방문했다	-9.94398
글	-9.94506
▁신뢰	-9.94557
▁끝난	-9.94586
▁월드컵	-9.94625
▁행	-9.94644
상태	-9.94645
▁공화당의	-9.94661
▁학생들이	-9.94683
▁대체	-9.94716
▁목격자	-9.94754
▁취임	-9.94771
조치	-9.94819
▁지휘	-9.94875
▁역	-9.94884
▁아랍	-9.94936
▁지도부	-9.94953
▁편지	-9.94986
▁펜실베이니아	-9.95057
▁대처	-9.95058
▁방식	-9.95064
▁잡지	-9.95081
▁36	-9.951
▁깨	-9.95194
▁다우존스	-9.95212
▁페일린	-9.95212
▁반기문	-9.95215
▁리콜	-9.95222
▁않도록	-9.95224
▁불참	-9.95225
슈	-9.95241
▁회담에	-9.95289
▁있	-9.95311
▁대결	-9.95501
▁여기	-9.9556
▁밖에서	-9.95638
▁존슨	-9.95703
▁42	-9.95722
둔	-9.95745
낼	-9.95819
▁결정은	-9.95852
J	-9.95862
정책	-9.95907
▁지연	-9.95932
▁직	-9.95972
▁시점	-9.96089
▁바그다드에서	-9.96102
▁이스라엘군	-9.9612
▁샤리프	-9.96132
움	-9.96159
▁통치	-9.96162
▁사라	-9.96187
▁사건으로	-9.96396
▁믿고	-9.96478
▁찾고	-9.96478
▁헤즈볼라	-9.96478
▁갖추	-9.96481
▁에이즈	-9.96494
▁변경	-9.96504
▁1980	-9.96506
▁만드는	-9.96519
▁출시	-9.96522
한다면	-9.96527
▁타이	-9.96546
▁충분	-9.96595
▁이르는	-9.96598
▁지하	-9.96712
▁벨	-9.96746
▁생존	-9.96797
▁회담이	-9.96817
자들	-9.97011
70	-9.97206
▁장비	-9.97318
▁현재까지	-9.9737
▁논란	-9.97441
번째로	-9.97502
▁기념	-9.97521
▁기업들	-9.97526
▁의원들은	-9.9753
▁크리스	-9.97533
▁정신	-9.97542
▁워싱턴에서	-9.97586
▁적은	-9.97634
▁상승했다	-9.97672
▁이웃	-9.97678
▁예상했다	-9.97681
▁세계대전	-9.9776
▁첼시	-9.97762
▁학	-9.97771
▁않았으며	-9.97773
▁학살	-9.97786
▁영토	-9.97789
▁신용	-9.97796
▁이번주	-9.97801
▁민주화	-9.97802
▁버마	-9.97812
▁보통	-9.97819
▁세르비아	-9.97838
▁열린우리당	-9.97846
▁강경	-9.97846
▁최신	-9.97969
el	-9.97979
▁수백만	-9.98047
▁니	-9.98058
▁짐	-9.98171
▁가까이	-9.98196
▁포함되어	-9.98201
▁차드	-9.98236
▁전면	-9.98361
▁기도	-9.98457
▁경찰서장	-9.98506
▁보상	-9.98507
▁공격이	-9.98536
▁부문	-9.98725
▁곳으로	-9.98931
▁오르	-9.98938
op	-9.98963
영화	-9.99058
▁검색	-9.99061
▁겨울	-9.99065
▁있으나	-9.99072
▁우선	-9.99072
▁폭동	-9.99078
▁다니	-9.99089
▁동반	-9.99089
▁서방	-9.99127
기가	-9.99135
▁치러진	-9.9915
ur	-9.99156
▁예정이며	-9.99163
▁톰	-9.9918
▁일주일	-9.99196
들로	-9.99196
▁공원	-9.99207
▁44	-9.9922
▁선물	-9.99239
▁철도	-9.99257
▁질환	-9.99303
▁지도	-9.99314
킨	-9.99321
▁취할	-9.99323
▁받	-9.99355
▁FARC	-9.99395
▁포기	-9.99409
▁재정	-9.99413
▁남아	-9.99436
▁진행된	-9.99439
at	-9.99516
▁내에	-9.99539
▁지적	-9.99578
▁유리	-9.99621
▁등이	-9.99741
염	-9.99748
허	-9.99787
연합	-9.99819
▁아파트	-9.99916
례	-9.99932
까	-9.99955
▁억류	-9.99993
▁활용	-10
▁향하	-10
▁그것이	-10.0005
겠다	-10.0006
▁됩니다	-10.0017
▁심각	-10.002
▁성과	-10.0023
ate	-10.0023
▁아카데미	-10.0031
▁인식	-10.0035
▁우라늄	-10.0037
▁카르자이	-10.0037
▁드라마	-10.0038
▁이메일	-10.0038
▁음반	-10.0038
탈	-10.0038
▁가옥	-10.0039
▁심문	-10.0043
자와	-10.0045
▁경보	-10.0046
▁때문이다	-10.0046
▁다이아몬드	-10.0046
▁장식	-10.0055
▁아이들이	-10.0056
▁해리포터	-10.0057
대에	-10.0071
▁형성	-10.0079
▁기준	-10.0081
▁38	-10.0081
변	-10.0085
▁응	-10.0085
▁바라고	-10.0098
▁매장	-10.0099
▁빛	-10.0104
▁MS	-10.0107
찬	-10.011
겐	-10.0114
▁불리는	-10.0114
만큼	-10.0118
as	-10.0128
▁국	-10.0132
▁시위에	-10.0146
The	-10.0151
▁회사들	-10.0152
▁사살	-10.0159
덴	-10.0169
▁질병	-10.0171
▁멸종	-10.0171
▁방글라데시	-10.0171
▁에드워즈	-10.0171
ve	-10.0171
▁9.11	-10.0171
▁갑자	-10.0171
▁접속	-10.0172
▁야생	-10.0172
▁카페	-10.0174
▁걸릴	-10.0175
▁만날	-10.0176
▁체니	-10.018
▁잠시	-10.0184
▁레이스	-10.0195
▁엔	-10.0197
자로	-10.0198
장에서	-10.0205
▁마이크	-10.0211
▁모양	-10.0215
▁노출	-10.0225
▁관광객들	-10.0228
▁가자	-10.0235
▁목적으로	-10.0238
0	-10.0238
▁크기	-10.0247
▁방지	-10.0247
올	-10.0249
경찰	-10.0254
▁지진이	-10.0258
▁한국군	-10.0265
▁이스라엘과	-10.0274
▁계획에	-10.0277
▁지지하는	-10.0278
▁34	-10.0286
후드	-10.0292
▁악화	-10.0297
분의	-10.0304
]	-10.0306
▁금요일	-10.0306
▁대다수	-10.0306
▁탐사	-10.0308
▁리비아	-10.0309
▁어려운	-10.031
였으며	-10.0312
▁증명	-10.0319
▁공항에서	-10.0319
▁대북	-10.032
▁학대	-10.0326
▁방어	-10.0327
▁프로	-10.0334
▁아래	-10.0339
▁혹	-10.0346
▁좋아	-10.0347
▁동맹	-10.035
▁주간	-10.0351
▁시절	-10.0354
▁못하	-10.036
▁밝	-10.0365
▁대부분이	-10.0387
▁나서	-10.0394
▁교도소	-10.0395
▁소니	-10.04
▁경매	-10.0402
▁원하는	-10.0405
▁가했다	-10.041
▁명은	-10.0438
▁의회에	-10.044
▁온난화	-10.0443
▁캠페인	-10.0443
▁협상이	-10.0443
▁덮	-10.0444
▁봄	-10.0444
▁통합	-10.0445
▁묘사	-10.0446
w	-10.0459
▁있는데	-10.0459
▁국왕	-10.0466
선수	-10.0471
▁각국	-10.0474
▁인질들	-10.0477
▁공산당	-10.048
▁독	-10.0488
▁선박	-10.0493
▁48	-10.0493
▁발생하지	-10.0497
▁소식이	-10.0499
▁되기	-10.0502
▁보수	-10.0509
▁전투기	-10.0515
▁면	-10.052
▁장관이	-10.0521
려고	-10.0524
▁51	-10.053
▁내용이	-10.0531
사가	-10.0536
EU	-10.0536
▁수요	-10.0555
인들은	-10.0567
학교	-10.0572
관리	-10.0576
▁통신은	-10.0577
셔	-10.0578
▁의회는	-10.0579
▁지키	-10.0579
▁희생자들	-10.058
▁즉각적	-10.0581
▁이렇게	-10.0582
▁더불어	-10.0582
▁맨유	-10.0583
▁넓	-10.0583
▁페루	-10.0586
▁일본에서	-10.0587
▁의문	-10.0589
▁나이지리아	-10.0591
▁여사	-10.0593
▁의회에서	-10.0593
▁의무	-10.0596
▁낸	-10.0599
▁아일랜드	-10.0602
▁실시되	-10.0602
▁뉴질랜드	-10.0602
▁때문이라	-10.0602
▁행성	-10.0605
▁이행	-10.0606
▁사건과	-10.0611
▁앨범	-10.0613
▁FTA	-10.0618
환	-10.062
▁신호	-10.062
▁복용	-10.0621
▁노동자	-10.0624
▁수집	-10.0635
▁평화적	-10.0637
▁부근에서	-10.0638
▁주장하는	-10.0641
▁마르	-10.0643
▁감정	-10.0645
▁동물원	-10.065
▁이중	-10.0653
▁고객	-10.0657
철	-10.0671
▁반군이	-10.0677
15	-10.0686
▁것보다	-10.0687
▁의지	-10.0687
▁거절	-10.0689
▁소환	-10.0691
cm	-10.0693
▁선언했다	-10.0695
▁고대	-10.0701
▁화	-10.0702
▁성공적	-10.0713
정도	-10.0713
▁계획이	-10.0714
▁불안	-10.0718
▁복구	-10.0723
▁북동부	-10.0723
▁새끼	-10.0724
▁단순	-10.0724
▁하늘	-10.0724
▁체결	-10.0725
▁않지만	-10.0726
▁매각	-10.0726
▁가입	-10.0726
▁소요	-10.0728
▁재무장관	-10.0728
▁사인	-10.073
▁베트남	-10.073
함에따라	-10.0733
▁사무총장	-10.0737
년이	-10.074
누	-10.0741
▁부여	-10.0742
▁업무	-10.0742
▁의회의	-10.0746
▁대통령에	-10.0748
했	-10.075
▁영화제	-10.0751
▁모여	-10.0752
▁힘들	-10.0758
▁소설	-10.0758
▁공격에	-10.0759
▁폐지	-10.0761
▁있어서	-10.0777
▁충분한	-10.0783
ter	-10.0792
▁수업	-10.0792
들도	-10.0799
▁경찰서	-10.0801
랜	-10.0801
▁킹	-10.0802
▁안에서	-10.0807
▁상징	-10.0818
▁베이	-10.0818
▁먹	-10.082
▁말까지	-10.0821
▁세상	-10.0821
랜드	-10.0831
▁악	-10.0834
▁실행	-10.0839
▁특별한	-10.0839
▁보면	-10.084
▁제안했다	-10.0841
▁사용되	-10.0843
ri	-10.0853
라도	-10.0863
▁숫자	-10.0865
▁오스트리아	-10.0865
▁훌륭	-10.0865
▁카스트로	-10.0866
▁다르푸르	-10.0866
▁칠레	-10.0866
▁마틴	-10.0867
▁진실	-10.0868
▁최선	-10.0869
▁도입	-10.0869
▁신경	-10.0872
▁계속되고	-10.0886
▁시내	-10.089
▁특사	-10.0895
▁이익	-10.0898
▁시작한	-10.0903
▁분야	-10.0904
is	-10.0911
▁거부했다	-10.0915
▁대회에서	-10.092
▁그동안	-10.092
▁기다리고	-10.0924
▁돌아가	-10.0925
▁시위대는	-10.0931
▁적용	-10.0943
들어	-10.0944
▁상점	-10.0945
▁아니	-10.0947
▁서명	-10.0966
▁사전	-10.0968
새	-10.0968
▁의식	-10.0971
▁폭격	-10.0985
us	-10.099
▁승리했다	-10.0992
▁수감자	-10.0993
▁둘	-10.1006
▁이하	-10.1008
▁습격	-10.101
▁설득	-10.101
""	-10.1011
▁마카오	-10.1011
▁합동	-10.1012
▁신임	-10.1018
▁파산	-10.1021
▁북측	-10.1023
▁빅	-10.1032
명도	-10.1032
▁돌아	-10.1035
▁열대	-10.1038
▁유전자	-10.1039
▁내릴	-10.1044
▁콜	-10.1058
▁사실상	-10.1059
▁전반	-10.1063
▁계획이라고	-10.1089
놓고	-10.1091
▁회원국	-10.1095
▁저항	-10.11
▁노력하고	-10.1103
▁여자친구	-10.1118
▁해변	-10.1118
▁값	-10.1123
▁시장에서	-10.1127
▁해병대	-10.1127
▁달러에	-10.1128
▁600	-10.1135
▁전개	-10.114
▁취	-10.1142
▁중부	-10.1142
▁카드	-10.1144
▁항소	-10.1145
▁끌어	-10.1148
▁성화봉송	-10.1149
▁블랙	-10.1157
▁정확히	-10.1157
▁고향	-10.1159
▁구제	-10.116
▁선거운동	-10.116
▁행복	-10.116
주일	-10.1167
▁위원회는	-10.1168
▁뼈	-10.1173
▁측정	-10.1175
▁절대	-10.1179
▁콩고	-10.1186
▁폐기	-10.119
▁늘	-10.12
▁사령관	-10.1202
▁성향	-10.1203
▁250	-10.1204
▁그림	-10.1205
▁결정에	-10.1211
▁추적	-10.1216
▁지켜	-10.1218
▁폭탄이	-10.1218
▁납치된	-10.1219
▁투어	-10.1232
▁수용소	-10.1235
사를	-10.1243
▁자기	-10.1244
뿐	-10.1244
려는	-10.1247
▁주지	-10.1269
▁업계	-10.127
라운드	-10.1282
트는	-10.1283
▁해결하기	-10.1283
▁검거	-10.1285
▁실패했다	-10.1285
▁방법으로	-10.129
▁획득	-10.1294
▁피해가	-10.1294
ion	-10.1296
도시	-10.1297
▁왕세자	-10.1299
▁방침	-10.13
곤	-10.1301
멋진	-10.1307
▁누군가	-10.1307
▁완벽	-10.1307
▁NBC	-10.1307
▁스리랑카	-10.1308
▁자극	-10.1308
▁남아공	-10.1308
▁성관계	-10.131
▁PC	-10.1311
▁상처	-10.1312
▁2010	-10.1316
▁AC	-10.1316
▁따라서	-10.1321
▁다수	-10.1321
▁받아야	-10.1323
▁소수	-10.1333
▁대답	-10.1333
▁의도	-10.1344
▁했으며	-10.1347
▁크	-10.1352
▁머	-10.1359
▁인하	-10.1361
▁수영	-10.1361
▁이송	-10.1364
▁보고했다	-10.1365
▁추정되는	-10.1368
▁군정	-10.1373
▁33	-10.1374
▁명단	-10.1382
▁테러리스트	-10.1383
차전	-10.1385
▁모인	-10.1392
▁지도자들은	-10.1393
▁기본	-10.1397
지르	-10.1401
▁시드	-10.1402
▁중지	-10.141
▁답변	-10.141
었	-10.1419
▁외교관	-10.1427
▁마치고	-10.1429
세인	-10.143
U	-10.1437
▁달성	-10.144
▁탈출	-10.1442
▁곳이	-10.1446
▁표했다	-10.1447
트리	-10.1454
▁구입	-10.1455
▁맨체스터	-10.1458
▁스웨덴	-10.1458
▁활주로	-10.1458
▁고등학교	-10.1458
▁폴란드	-10.1459
▁교환	-10.1459
▁철저	-10.1459
▁은퇴	-10.1459
▁특정	-10.146
▁마쳤다	-10.1462
▁공공	-10.1463
▁케	-10.1464
▁발병	-10.1465
▁공중	-10.1467
▁거뒀다	-10.1469
▁난사	-10.1477
▁태평양	-10.1477
▁헤럴드	-10.1483
▁방화	-10.1486
▁기상	-10.1487
안에	-10.1493
▁목사	-10.1493
▁제도	-10.1497
나는	-10.1507
▁적절한	-10.1508
▁최	-10.1509
100	-10.151
▁런던에서	-10.1515
▁본사	-10.152
▁전해	-10.1522
▁분리	-10.1536
필드	-10.1538
▁전날	-10.1541
▁많다	-10.1547
▁있다면	-10.1548
▁조사에서	-10.1548
드시	-10.1553
▁여성의	-10.1558
갔다	-10.1559
▁안전한	-10.1563
▁수상자	-10.1565
▁일본이	-10.1565
리고	-10.1566
었고	-10.1568
ers	-10.1587
했음	-10.1598
산업	-10.1603
랄	-10.161
▁붉은	-10.1611
▁덴마크	-10.1612
▁잃은	-10.1612
▁흡연	-10.1612
▁리조트	-10.1612
▁일환으로	-10.1612
▁운송	-10.1612
▁민감	-10.1614
▁철군	-10.1615
▁웨스트	-10.1616
▁늘어	-10.1616
▁사우디아라비아	-10.1617
▁노예	-10.1618
▁개표	-10.1619
▁고발	-10.162
▁예비	-10.1621
▁실종된	-10.1632
▁발표된	-10.1634
▁않	-10.1634
▁알아	-10.1637
▁CEO	-10.164
▁초점	-10.164
▁내놓	-10.1643
경제	-10.1643
▁첫번째	-10.1646
▁당선인은	-10.1651
▁하면	-10.1652
▁환자들	-10.1652
▁허락	-10.166
▁베이징에서	-10.1667
▁보안군	-10.1668
▁외교적	-10.1671
▁휴	-10.1675
견	-10.1676
▁예산	-10.1686
ment	-10.1697
조원	-10.1698
▁운항	-10.17
▁합	-10.1701
▁보트	-10.1701
빠진	-10.1704
▁기독교	-10.1704
▁추방	-10.1706
밀	-10.1713
람	-10.1717
▁사장은	-10.172
▁주인공	-10.1721
패	-10.1722
낸	-10.1729
쇼	-10.1737
숙	-10.1738
▁바이	-10.1739
▁55	-10.1739
웠다	-10.1743
률	-10.1746
▁결의안	-10.1747
▁국제적	-10.1752
▁플레이	-10.1756
주의자	-10.1759
▁차관	-10.1761
죠	-10.1767
▁네트워크	-10.1768
▁동티모르	-10.1768
▁쓰나미	-10.1768
▁챔피언스리그	-10.1768
▁복잡	-10.1769
▁기능	-10.177
▁맞서	-10.1773
▁방향	-10.1774
▁구금	-10.1775
▁크라이슬러	-10.1776
▁무력	-10.1777
▁뉴욕에서	-10.1778
▁달라	-10.178
▁그래서	-10.1784
▁주한미군	-10.1785
▁공유	-10.1787
▁농	-10.1789
▁있었고	-10.179
▁조사에	-10.1793
폭	-10.1795
▁불길	-10.18
▁경기장	-10.1803
▁46	-10.1812
▁중국에	-10.1813
▁봉쇄	-10.1821
▁CIA	-10.1824
▁공화국	-10.1824
▁이주	-10.1824
▁색	-10.1826
▁밝히고	-10.1828
▁부서	-10.1828
원제	-10.1831
겨	-10.1837
▁자세한	-10.184
▁근처	-10.1847
▁말라	-10.1848
▁라이	-10.1849
▁지역으로	-10.1849
▁의석	-10.185
▁b	-10.1852
▁대기	-10.1857
▁세워	-10.1873
▁식	-10.1874
▁체제	-10.1881
엘	-10.1889
▁당신이	-10.1891
▁유치	-10.1891
▁생각하고	-10.1893
▁이양	-10.1895
▁실적	-10.1896
▁잔	-10.19
공격	-10.19
▁75	-10.1906
▁법정	-10.1907
▁알래스카	-10.1908
v	-10.1912
졌으며	-10.1916
▁도시에서	-10.1916
치는	-10.1918
▁동일	-10.1918
▁벗어나	-10.1921
▁탈	-10.1926
▁찬	-10.1926
▁나스닥	-10.1927
▁불능화	-10.1927
▁앓고	-10.1927
▁없으며	-10.1927
▁타이틀	-10.1928
▁레알	-10.1928
▁하원의원	-10.1928
▁회동	-10.1928
▁치열	-10.1929
▁순방	-10.1929
▁하와이	-10.193
▁인류	-10.1931
보다는	-10.1933
▁만난	-10.1934
▁파티	-10.1938
▁다우	-10.1938
▁삼성	-10.1942
▁국회의원	-10.1943
당한	-10.1946
▁총격전	-10.1947
▁했지만	-10.1948
▁무선	-10.1948
▁강타	-10.1949
▁43	-10.1953
▁발생했으며	-10.1954
▁야기	-10.1955
▁노대통령	-10.196
▁없었	-10.196
▁올린	-10.1964
▁한때	-10.1964
▁일간	-10.1964
▁이사회	-10.1966
아야	-10.1966
▁펼쳤다	-10.1974
물을	-10.1976
▁방송국	-10.1989
분간	-10.1997
▁지목	-10.1999
▁이유는	-10.1999
▁절	-10.2002
▁파손	-10.2008
▁나갈	-10.2011
▁요원	-10.2024
▁서울에서	-10.2028
▁이곳에	-10.2033
▁선거에	-10.2034
▁수감자들	-10.2038
▁IAEA	-10.2039
▁환	-10.204
▁주문	-10.2043
되며	-10.2052
취	-10.2053
레스	-10.2063
▁살아	-10.2064
▁장애	-10.2065
스가	-10.2066
학자	-10.2066
▁방영	-10.2069
달라고	-10.2072
명에게	-10.2081
▁Korean	-10.2083
▁North	-10.2088
▁보여줬다	-10.2088
▁말리키	-10.2088
▁맞춰	-10.2089
▁면담	-10.2089
▁산사태	-10.209
▁분열	-10.209
▁생긴	-10.2091
▁커피	-10.2093
▁인생	-10.2093
▁무료	-10.2093
▁나올	-10.2094
▁무죄	-10.2094
▁개방	-10.2099
▁의미한다	-10.2102
▁근거	-10.2102
송	-10.2104
항공	-10.2107
▁집으로	-10.2113
▁빙하	-10.2113
▁얻어	-10.2116
▁구출	-10.2117
▁회원	-10.2118
▁벌어지	-10.2119
▁조성	-10.2124
▁대가로	-10.2136
▁순찰	-10.2138
▁어린이들	-10.214
▁기대하고	-10.2145
▁개장	-10.2145
장관	-10.2148
▁한국에서	-10.2149
90	-10.2154
▁신부	-10.2156
▁권한	-10.2162
TV	-10.2168
▁마감했다	-10.2193
스키	-10.2195
ir	-10.2201
▁말하는	-10.2205
64	-10.2206
앙	-10.2208
▁못해	-10.2218
압	-10.2221
계획	-10.2231
상황	-10.2235
▁견	-10.2237
이라크	-10.224
북한	-10.224
전에	-10.2243
▁위로	-10.2244
▁둘러	-10.2245
드라	-10.2248
ac	-10.2248
엄	-10.2249
▁Iraq	-10.2251
▁챔피언	-10.2252
▁사드르	-10.2252
▁옆에	-10.2252
▁이뤄지	-10.2252
▁논평	-10.2253
200	-10.2255
▁입증	-10.2256
▁부담	-10.2257
▁2012	-10.2257
▁사담	-10.2258
▁노동당	-10.2261
▁세계은행	-10.2262
▁원한다	-10.2262
장관은	-10.2262
▁오늘날	-10.2265
▁마시	-10.2265
▁주석	-10.2267
▁추정된다	-10.2282
▁보관	-10.2283
▁싸움	-10.2283
▁누리	-10.2284
▁폭발물	-10.2284
▁진전	-10.2285
▁린	-10.2286
▁자제	-10.2291
▁가구	-10.2292
▁청소년	-10.2294
▁키스	-10.2294
ho	-10.2295
버리	-10.2297
▁강요	-10.2299
▁52	-10.2303
▁앞에	-10.231
우리	-10.2311
▁증권	-10.2318
▁우주비행사	-10.2319
▁무대	-10.2323
▁체계	-10.2324
별	-10.2325
82	-10.2327
▁지시했다	-10.2328
▁전원	-10.2333
▁백악관은	-10.2338
▁de	-10.2343
수록	-10.2344
으로써	-10.2349
▁클린턴이	-10.235
▁측근	-10.2355
▁승리한	-10.2357
▁신체	-10.2358
한국	-10.2358
▁충	-10.2379
근	-10.2385
위원	-10.2386
▁작동	-10.2388
▁스키	-10.239
▁오염	-10.2392
▁거쳐	-10.2394
▁브	-10.2394
▁하게	-10.2397
테러	-10.2398
스와	-10.2399
▁사망자수	-10.241
갑	-10.2412
▁64	-10.2413
▁노벨	-10.2414
▁가슴	-10.2419
▁라스베이거스	-10.2419
▁태어난	-10.2419
▁파예드	-10.2419
▁가택연금	-10.2419
▁결선투표	-10.2419
▁에어버스	-10.2419
▁관찰	-10.242
▁봤다	-10.242
▁아이디어	-10.242
▁다윈	-10.2421
▁급등	-10.2421
세트	-10.2421
▁채택	-10.2421
▁강풍	-10.2422
▁고립	-10.2422
▁두바이	-10.2424
▁단속	-10.2426
▁분명히	-10.2427
▁공포	-10.2427
▁거두	-10.2429
▁돌아오	-10.243
▁일반적으로	-10.2431
▁다우지수	-10.2433
▁중순	-10.2439
▁호세	-10.2439
▁불러	-10.244
▁빚	-10.2441
▁캘리포니아주	-10.245
all	-10.245
행위	-10.2452
▁즐	-10.2453
▁비교	-10.2454
▁사용될	-10.2454
▁상어	-10.2458
ch	-10.2459
벨	-10.246
▁폭락	-10.2472
▁지시	-10.2476
장치	-10.2486
▁샌프란시스코	-10.2487
▁유감	-10.2487
▁주인	-10.2495
▁참석했다	-10.2497
▁발생하는	-10.2503
▁재단	-10.2504
기에	-10.2508
se	-10.2515
▁티	-10.2518
조차	-10.2522
▁법원에	-10.2528
▁피트	-10.2539
▁순	-10.2543
▁자원	-10.2546
ies	-10.2549
▁국장	-10.2553
받	-10.2554
▁현상	-10.2563
풍	-10.2565
컵	-10.2567
벌	-10.257
▁주목	-10.2572
▁묻	-10.2584
▁마찬가지	-10.2588
▁와인하우스	-10.2589
▁합병	-10.2589
▁크루즈	-10.2589
▁있었지만	-10.259
▁헨리	-10.2592
▁아니면	-10.2594
▁유나이티드	-10.2597
▁대량	-10.2597
피트	-10.2598
▁전세계적으로	-10.26
▁해임	-10.2603
▁직전	-10.2604
▁현금	-10.2606
▁진화	-10.2606
제도	-10.2614
▁만화	-10.2618
건의	-10.2635
▁만났다	-10.2637
▁중독	-10.2638
▁사용한	-10.2638
▁물건	-10.2641
법원	-10.2653
et	-10.2665
▁차관보는	-10.2673
▁호텔에서	-10.2683
▁오바마와	-10.269
▁식당	-10.2695
47	-10.2708
▁자리에서	-10.2711
▁레이	-10.2726
▁운영하	-10.2731
▁파악	-10.2732
▁부정적	-10.2736
▁방법이	-10.274
찰	-10.2741
펠	-10.275
▁800	-10.2751
닝	-10.2756
▁이내	-10.2759
딩	-10.2759
▁태양	-10.276
▁곤잘레스	-10.2761
▁선거캠프	-10.2761
▁찾을	-10.2761
▁청문회	-10.2761
▁토네이도	-10.2761
▁삭제	-10.2761
▁심지어	-10.2761
▁농축	-10.2761
▁송환	-10.2761
▁북서부	-10.2762
▁유력	-10.2768
▁외환은행	-10.2769
▁다니엘	-10.277
▁잇	-10.2776
▁발전소	-10.2777
25	-10.2778
▁발간	-10.278
▁떠났다	-10.2791
▁작	-10.2791
됐으나	-10.2796
▁식품	-10.2801
▁지속	-10.2804
▁결과는	-10.2812
됐었다	-10.2815
▁리치	-10.2824
천만	-10.2824
▁백악관에서	-10.2828
▁러시아는	-10.2828
▁보고서에서	-10.2829
기지	-10.2832
▁PPP	-10.2852
ity	-10.2853
▁조기	-10.2856
est	-10.2857
▁3000	-10.2858
▁물가	-10.2863
▁분석가	-10.2872
▁출석	-10.2876
▁펜	-10.2877
▁간단	-10.2879
la	-10.2892
▁홀	-10.2903
▁부근	-10.2905
침	-10.2906
▁진술했다	-10.2907
텔	-10.2908
평	-10.2909
▁전역	-10.2911
16	-10.2912
▁사령관은	-10.2913
▁죄	-10.2917
돌	-10.2919
베이	-10.2919
▁쓰	-10.292
웰	-10.2921
▁못한다	-10.2924
▁나누	-10.2925
카운티	-10.2927
▁제기했다	-10.2928
닌	-10.2929
럼	-10.2931
▁요르단	-10.2935
▁사냥	-10.2936
▁일으킨	-10.2936
▁혜택	-10.2936
▁휴대전화	-10.2936
▁보스턴	-10.2937
▁즉각	-10.2938
▁테스트	-10.2938
시아	-10.2941
▁배경	-10.2943
▁여권	-10.2946
▁신발	-10.2946
▁재난	-10.2947
작전	-10.2951
▁기계	-10.2952
▁보유하고	-10.2958
▁세포	-10.2959
이던	-10.296
▁델	-10.2963
운동	-10.2965
▁배출	-10.2966
▁고어	-10.2967
▁훼손	-10.2973
때문에	-10.2974
▁보낼	-10.2979
▁총상	-10.2985
되었으며	-10.2986
▁들어갔다	-10.2987
▁못하게	-10.2988
▁합의했다고	-10.2989
▁답	-10.299
▁지속적	-10.2998
▁죽은	-10.3002
었지만	-10.3003
▁투표에서	-10.3009
▁시청	-10.3013
▁출동	-10.3014
▁홍수로	-10.3017
▁이에따라	-10.3021
▁이라크군	-10.3029
▁경영	-10.3029
리에	-10.3032
세로	-10.3035
▁교사	-10.3038
세력	-10.3045
▁책임자	-10.3048
▁아니었다	-10.3049
lo	-10.3051
슨은	-10.3052
▁구조대	-10.3056
▁이스라엘은	-10.3061
▁상태로	-10.3065
▁경제에	-10.3065
▁감독이	-10.3068
▁트리	-10.3072
▁일이라고	-10.3079
▁보유	-10.3086
시키려	-10.3097
자들에게	-10.31
막	-10.3101
느	-10.3103
폴	-10.3109
▁시장에	-10.3109
▁이후로	-10.3111
▁한국에	-10.3114
▁샤라포바	-10.3115
▁이뤄졌다	-10.3115
▁남서부	-10.3115
▁토마스	-10.3115
▁겨냥	-10.3115
▁다섯	-10.3115
▁케이블	-10.3115
립니다	-10.3116
▁활약	-10.3116
▁1994	-10.3116
▁급격	-10.3116
▁화장실	-10.3117
▁종류	-10.3118
▁분류	-10.3118
▁왕실	-10.3119
▁유출	-10.3119
▁갖게	-10.3122
▁불편	-10.3123
▁쓴	-10.3124
▁초반	-10.3125
▁김대중	-10.3127
된다고	-10.3129
▁해산	-10.3129
▁쌀	-10.313
▁견해	-10.3131
▁날짜	-10.3137
▁원화	-10.3138
▁맥주	-10.3142
▁장례식	-10.3142
▁이재민	-10.3143
▁56	-10.3147
14	-10.3152
▁혐의에	-10.3157
▁일제	-10.3157
업자	-10.3157
해줄	-10.316
▁표시	-10.3163
▁노스캐롤라이나	-10.3176
▁책임이	-10.3176
▁중재	-10.3178
▁제대	-10.3184
▁초대	-10.3196
되자	-10.3196
▁가능하다	-10.32
▁맡은	-10.3203
이었으며	-10.3214
▁아동	-10.3216
▁로한	-10.3224
▁열어	-10.3226
▁하던	-10.3228
▁기금	-10.3231
▁주기	-10.3231
대표	-10.3231
▁리드	-10.3237
ro	-10.3244
▁증가하고	-10.3245
▁시티	-10.3245
▁전역에	-10.3246
있	-10.3247
▁그리	-10.3247
▁메이	-10.3247
▁리그	-10.3249
▁다이	-10.325
되었던	-10.3254
잔	-10.3259
▁공항에	-10.3272
▁물이	-10.3273
▁청	-10.3275
31	-10.3275
▁대선에서	-10.3286
▁일리노이	-10.3289
▁세금을	-10.329
알	-10.3291
▁건축	-10.3291
▁늦게	-10.3297
▁없지만	-10.3297
▁엄격	-10.3297
▁천주교	-10.3297
▁복무	-10.3297
▁산림	-10.3298
▁폭설	-10.3299
▁디자인	-10.3299
▁우리나라	-10.3299
▁기밀	-10.33
▁이루어졌다	-10.33
▁추측	-10.33
▁1970	-10.3303
▁부과	-10.3303
▁화재로	-10.3304
▁모기지	-10.3304
▁문제의	-10.3305
▁높아지	-10.3312
스코	-10.3313
▁본선	-10.3314
▁옮겨	-10.3314
▁선전	-10.3318
▁세력이	-10.3326
▁주장에	-10.3328
▁조각	-10.333
으	-10.3341
▁측은	-10.3341
▁일본과	-10.3345
▁북쪽	-10.3346
▁민주	-10.3347
대학	-10.3348
▁양측	-10.3355
▁재건	-10.3366
▁혁명	-10.3368
▁블	-10.3369
▁명예	-10.337
▁총장은	-10.3372
▁부상으로	-10.3375
▁트	-10.338
▁했습니다	-10.3385
▁상승세	-10.339
▁얻기	-10.3393
▁백인	-10.3398
▁시드니	-10.3399
▁평가했다	-10.3401
▁과학자	-10.3405
▁셀	-10.3405
버그	-10.3409
▁토론회	-10.3413
▁당수	-10.3413
▁생일	-10.3417
▁형태	-10.3424
▁대피했다	-10.3429
▁불가능	-10.343
▁장면이	-10.343
ia	-10.3432
▁급속	-10.3439
▁복	-10.3441
위원장은	-10.3448
▁나오는	-10.3449
▁골프	-10.3452
▁강조	-10.3456
▁군은	-10.3459
▁보이	-10.346
필	-10.3473
▁130	-10.3476
▁쇼핑	-10.3477
▁취재	-10.3479
▁쓰촨성	-10.3482
암	-10.3482
▁남극	-10.3483
둘	-10.3483
▁알카에다와	-10.3484
▁아이폰	-10.3484
▁법무부	-10.3485
▁선발	-10.349
▁에드	-10.349
▁다음날	-10.3491
▁예전	-10.3492
▁자문	-10.3493
▁낸시	-10.3493
▁보복	-10.3494
하고자	-10.3495
▁대학교	-10.3496
▁항	-10.3498
됐을	-10.3498
▁차단	-10.35
▁파도	-10.35
▁보도에따르면	-10.3502
▁앨	-10.3502
▁달라이라마	-10.3506
▁달려	-10.3509
▁섹스	-10.3512
▁이라크와	-10.3513
▁계획은	-10.3519
위원회는	-10.352
▁논란이	-10.3529
19	-10.3532
▁is	-10.3536
▁잡고	-10.3536
▁120	-10.3536
▁자유롭	-10.3536
▁딕	-10.3541
세가	-10.3544
렛	-10.3544
▁기록한	-10.355
▁올리	-10.3551
▁공기	-10.3554
▁비판했다	-10.3554
▁자유를	-10.356
▁치러	-10.356
▁공간	-10.3562
▁지내	-10.3569
▁제공하는	-10.3572
▁경쟁자	-10.3579
▁일으키	-10.358
▁확정	-10.3586
들로부터	-10.3587
▁사용자	-10.3588
▁나오지	-10.3594
▁사회적	-10.3599
했기	-10.3603
다시	-10.3612
▁사람에게	-10.3612
ut	-10.3613
▁생각하는	-10.3615
ist	-10.3616
▁병사들	-10.3616
te	-10.362
▁인근에	-10.3626
상의	-10.3627
id	-10.3628
▁영국인	-10.3628
▁기소됐다	-10.3632
▁화학	-10.3641
사인	-10.3641
▁그렇지	-10.3652
▁압둘	-10.3654
▁외교통상부	-10.3655
델	-10.3659
▁데이	-10.3659
푸	-10.3661
▁리처드	-10.3662
▁광	-10.3664
▁발언에	-10.3665
▁소매	-10.3668
뜨	-10.3668
식을	-10.3669
▁일찍	-10.3671
▁받아들일	-10.3671
귀	-10.3671
▁패트릭	-10.3671
▁거듭	-10.3671
▁원칙	-10.3671
▁소규모	-10.3672
▁과반수	-10.3672
▁영업	-10.3672
▁데이터	-10.3672
▁축소	-10.3674
그룹	-10.3675
▁대립	-10.3676
이상	-10.3678
▁감행	-10.3679
▁일리노이주	-10.3679
ol	-10.3679
▁언어	-10.3679
▁징역형	-10.368
▁서신	-10.3682
▁유럽의	-10.3686
▁기온	-10.3686
▁숙	-10.3687
▁비용이	-10.3694
제를	-10.3698
▁화상	-10.3701
받았다	-10.3702
▁의원들	-10.3705
▁노선	-10.3706
▁만들어진	-10.3708
▁소문	-10.3712
라이	-10.3714
▁북미	-10.3716
▁전쟁에	-10.372
▁아프가니스탄에서	-10.3723
▁중간	-10.3724
왔	-10.3728
▁우리당	-10.3728
스톤	-10.3732
▁시민들이	-10.3736
지역에서	-10.374
인들이	-10.3744
▁미국측	-10.3755
▁공대	-10.3756
척	-10.3757
▁53	-10.3757
▁일어났다	-10.3759
국장은	-10.376
▁일치	-10.3761
▁동쪽	-10.3772
당국	-10.3776
통신	-10.3789
▁61	-10.3801
▁코트	-10.3805
▁보지	-10.3807
▁무엇	-10.3807
▁위에	-10.3812
▁시한	-10.3813
▁노인	-10.3815
▁남부에서	-10.3817
▁차량이	-10.382
▁공격은	-10.3827
▁붙	-10.3829
▁이끌어	-10.3829
▁뿐만아니라	-10.3837
▁스타일	-10.3838
▁눈에	-10.3843
▁것이었다	-10.3844
▁아이오와	-10.3852
▁내무부는	-10.3853
▁해적	-10.3854
적이	-10.3855
폰	-10.3861
0,000	-10.3863
▁돕기	-10.3863
▁선관위	-10.3863
▁쌍둥이	-10.3863
▁후진타오	-10.3863
▁호랑이	-10.3863
▁둘러싸	-10.3863
▁바람	-10.3863
▁핵프로그램	-10.3863
▁케빈	-10.3864
▁지붕	-10.3864
▁법안이	-10.3864
▁패션	-10.3864
▁숀	-10.3865
▁줄리아니	-10.3866
짜리	-10.3866
▁체중	-10.3867
▁폭파	-10.3867
▁w	-10.3868
개발	-10.3868
▁임금	-10.3869
▁재무부	-10.3869
회사인	-10.3871
▁월드	-10.3871
▁제출했다	-10.3871
▁취임식	-10.3873
▁악어	-10.3873
▁가동	-10.3875
▁로비	-10.3877
▁인종	-10.3877
▁폭발이	-10.3878
▁행정	-10.3883
▁시장이	-10.3886
▁디즈니	-10.3887
▁조용	-10.3889
63	-10.389
▁전환	-10.3891
▁차량에	-10.3895
▁연구팀	-10.3895
▁폭스	-10.3896
▁답했다	-10.3899
문제	-10.3901
▁만일	-10.3901
▁가족과	-10.3902
▁갔다	-10.3904
▁호수	-10.3911
▁시작했다고	-10.3914
▁연금	-10.3917
▁영장	-10.3919
▁금리	-10.3922
되었고	-10.3923
▁구조대원들	-10.3927
▁근처에서	-10.3942
▁꿈	-10.3954
기관	-10.396
▁하락세	-10.3964
▁받는다	-10.3966
80	-10.3975
▁관계당국	-10.3975
▁시기에	-10.3975
▁증가한	-10.3976
웨이	-10.3984
▁700	-10.3984
▁나타내	-10.3985
12	-10.3989
데이	-10.399
▁세대	-10.3993
니아	-10.3994
▁황	-10.3995
▁짓	-10.3997
▁여행객	-10.3998
▁남동부	-10.4001
ent	-10.4011
됐고	-10.4012
주는	-10.4017
드리	-10.4022
▁불과	-10.4022
▁국방	-10.4023
▁거주	-10.4023
▁`	-10.4025
75	-10.4034
▁감염된	-10.4036
▁대상이	-10.4039
관은	-10.4044
탕	-10.4046
▁at	-10.4046
겠지만	-10.4048
몬	-10.4049
▁공개된	-10.405
▁몰아	-10.4052
▁발굴	-10.4055
▁든	-10.4058
▁남자친구	-10.4059
▁비타민	-10.4059
▁인플레이션	-10.4059
▁캄보디아	-10.4059
▁키바키	-10.4059
▁리히터	-10.4059
▁탱크	-10.4059
▁오딩가	-10.4059
▁탄핵	-10.4059
▁근육	-10.4059
▁자치정부	-10.406
▁수석대표	-10.406
▁대륙	-10.406
▁있었으나	-10.406
▁아프간에서	-10.406
▁직업	-10.406
▁저지른	-10.4061
▁중대한	-10.4061
▁1991	-10.4061
▁맞추	-10.4061
▁진영	-10.4062
▁고소	-10.4062
▁사찰단	-10.4062
▁해결책	-10.4062
▁호소	-10.4064
늘	-10.4065
▁자본	-10.4065
젠	-10.4067
▁해양	-10.4068
▁시각	-10.4069
▁들여	-10.407
팔	-10.407
▁카터	-10.4071
장인	-10.4071
▁뿐이라	-10.4074
▁에도	-10.4077
▁도달	-10.4079
▁시체	-10.4083
▁밥	-10.4084
정보	-10.4084
▁형사	-10.4084
▁받았으며	-10.4086
▁여사는	-10.409
▁일으켰다	-10.4093
▁것임	-10.4095
▁선포했다	-10.4097
▁테러와	-10.4097
▁응답자	-10.41
▁차지하고	-10.41
▁들어오	-10.4102
위의	-10.4104
▁아메리칸	-10.4106
▁조합	-10.4108
▁정원	-10.4109
▁달러화	-10.411
▁대치	-10.411
혔다	-10.4111
▁날개	-10.4113
▁수리	-10.4116
▁피해자들	-10.4118
조직	-10.412
분에	-10.4123
▁수립	-10.4124
▁돼지	-10.4125
▁도착한	-10.4125
중국	-10.4135
▁포로	-10.4136
▁증시는	-10.4144
▁인사들	-10.4144
▁말하며	-10.4144
웨	-10.4147
▁콘	-10.4148
▁49	-10.4154
▁상태에	-10.4155
으면서	-10.4155
▁수퍼	-10.4155
▁충돌이	-10.4155
▁있었다며	-10.4161
▁한나라당은	-10.4167
▁정신적	-10.4167
▁승리로	-10.4169
기업	-10.4172
am	-10.4173
▁거리에	-10.4176
▁구역	-10.4179
석을	-10.418
▁모스크바	-10.4183
▁애도	-10.4186
국인	-10.4193
▁헌	-10.4194
어야	-10.4195
더라도	-10.4195
▁의사들	-10.4198
ine	-10.4199
받으며	-10.4203
▁이사	-10.4214
▁비난하고	-10.422
▁수십명	-10.4222
▁지수	-10.4227
▁0	-10.4232
ive	-10.4235
▁완전한	-10.4235
▁보잉	-10.4236
▁계	-10.4244
롭	-10.4247
▁표명	-10.4248
▁엄청	-10.4249
였	-10.4252
▁워	-10.4253
age	-10.4255
켓	-10.4255
▁형제	-10.4255
▁화요일에	-10.4259
▁마이애미	-10.4259
▁샌디에이고	-10.4259
▁알코올	-10.4259
▁오사마빈라덴	-10.4259
▁유튜브	-10.4259
▁좋다	-10.4259
▁협박	-10.4259
▁생방송	-10.426
▁위안부	-10.4261
▁새벽	-10.4261
▁1996	-10.4261
▁신규	-10.4262
▁통일부	-10.4262
▁동생	-10.4262
▁무엇보다	-10.4263
▁벨기에	-10.4263
▁경영진	-10.4264
▁움직이	-10.4264
▁감바리	-10.4266
▁거부권	-10.4267
년만	-10.4267
▁바르셀로나	-10.4269
▁스코틀랜드	-10.4269
완	-10.4269
▁위조	-10.4272
▁요소	-10.4273
▁공개적으로	-10.4275
▁치명적인	-10.4275
▁정식	-10.4277
▁화해	-10.4282
▁유대인	-10.4282
▁이루	-10.4283
▁미칠	-10.4286
▁직장	-10.4287
▁기자들에게	-10.429
▁탐	-10.4293
▁해안에서	-10.4299
▁회사가	-10.43
▁북쪽으로	-10.4303
부대	-10.4307
▁적극적	-10.431
▁여성과	-10.4311
▁라이트	-10.4316
▁위협이	-10.4336
니는	-10.434
▁양국간	-10.4351
▁r	-10.4353
▁계속될	-10.4355
력이	-10.4355
▁낼	-10.4356
히려	-10.4356
▁기자들	-10.4362
▁곡	-10.4368
▁주지사가	-10.4378
시에	-10.4382
치를	-10.4384
▁했었다	-10.4384
비아	-10.4385
▁초안	-10.4388
▁최고치	-10.4389
극	-10.439
▁윌	-10.4394
▁여학생	-10.4395
이기	-10.4396
스타인	-10.4397
지수	-10.4397
▁슬	-10.4399
츠는	-10.4403
▁치르	-10.4407
▁맞는	-10.4414
▁만들고	-10.4416
▁확인됐다	-10.4419
▁공정	-10.442
▁프로그램에	-10.443
▁남성은	-10.4432
▁니콜	-10.4434
▁의존	-10.4445
▁보석	-10.4449
멸	-10.4461
▁스톤	-10.4463
▁듣고	-10.4463
▁필라델피아	-10.4463
▁리차드	-10.4463
▁마라톤	-10.4463
▁중앙일보	-10.4463
▁침몰	-10.4463
▁가벼	-10.4463
▁갖춘	-10.4463
▁예멘	-10.4463
▁라이벌	-10.4464
▁빈곤	-10.4464
▁ABC	-10.4465
▁채널	-10.4466
▁사생활	-10.4467
▁음	-10.4467
존	-10.4467
▁항구	-10.4467
▁만남	-10.4468
▁마무	-10.4468
▁진단	-10.4469
▁엔진	-10.447
▁조류	-10.4471
▁음주	-10.4471
▁소형	-10.4472
▁최저치	-10.4476
왕	-10.4476
▁것인가	-10.4476
삼	-10.4478
꺼	-10.4481
▁전부터	-10.4481
▁경호원	-10.4484
▁상승한	-10.4486
▁중이었다	-10.4488
▁대항	-10.449
뉴스	-10.4492
▁극복	-10.4492
▁케리	-10.4493
▁스캔들	-10.4495
▁텍사스주	-10.4503
▁쓸	-10.4504
▁공사	-10.4509
▁일간지	-10.451
▁조명	-10.4511
▁GM	-10.4511
니스	-10.4516
▁중요	-10.4518
▁사태에	-10.4521
▁방식으로	-10.4528
▁행사에	-10.4529
▁공개됐다	-10.453
되어야	-10.4537
▁부총리	-10.454
▁커플	-10.4542
▁주제	-10.4547
▁예술	-10.4549
장에	-10.456
▁당국에	-10.4562
해질	-10.4567
▁궁	-10.4575
▁서장	-10.4577
▁an	-10.458
46	-10.4583
량이	-10.4588
▁결의안을	-10.4591
▁레스토랑	-10.4597
▁이란과	-10.4599
▁지상	-10.46
▁물에	-10.46
▁p	-10.4601
▁터	-10.4606
▁단체들	-10.4608
▁관여	-10.4609
▁발생하고	-10.4609
▁출판	-10.4629
▁녹	-10.463
밖에	-10.4638
▁이론	-10.4639
▁왔	-10.4642
▁Re	-10.4646
▁인디애나	-10.4648
▁우리에게	-10.4652
▁회의에서	-10.4652
혈	-10.4656
해지	-10.4656
▁북극	-10.4656
널	-10.4657
넬	-10.4669
롱	-10.4669
▁미시시피	-10.467
▁골키퍼	-10.4671
▁블라고예비치	-10.4671
▁섭취	-10.4671
▁연쇄	-10.4671
▁확장	-10.4671
▁옐친	-10.4671
▁테일러	-10.4671
▁스트레스	-10.4671
▁천연가스	-10.4671
▁다시한번	-10.4672
▁은신처	-10.4672
▁난민촌	-10.4672
▁상륙	-10.4672
▁지하철	-10.4672
▁주한	-10.4672
▁균형	-10.4673
▁종결	-10.4674
▁검문소	-10.4674
▁창문	-10.4675
▁소집	-10.4676
▁않았던	-10.4677
화를	-10.4677
▁마이크로소프트	-10.4677
황	-10.4679
착	-10.4679
▁공모	-10.4685
▁젊은이들	-10.4686
헌	-10.469
▁개정안	-10.4692
▁점차	-10.4692
국의	-10.4699
▁홈	-10.47
▁기차	-10.4702
국이	-10.4704
사태	-10.4705
▁보여준다	-10.4706
▁인원	-10.4713
▁있어야	-10.4713
▁딸이	-10.4714
▁사람들과	-10.4714
▁운전자	-10.472
▁2500	-10.473
▁실망	-10.4733
시켰다고	-10.4738
▁예정이었다	-10.4739
▁외치	-10.474
▁결과에	-10.4745
▁요리	-10.4755
▁고객들	-10.4756
▁전복	-10.4756
▁현실	-10.4758
▁그래	-10.4762
미터	-10.4762
자들의	-10.4762
▁기존	-10.4764
베나	-10.4764
었으나	-10.4767
▁이란에	-10.4769
▁중단했다	-10.4777
간에	-10.4778
▁세계적으로	-10.4782
▁고장	-10.4797
▁정치인들	-10.4798
▁프레스	-10.4801
▁사용하지	-10.4802
▁의학	-10.4806
po	-10.4806
▁자신에게	-10.4811
▁바꾸	-10.4812
▁사장	-10.4814
▁걸린	-10.4815
▁감지	-10.4818
▁근로자	-10.4818
▁제작한	-10.4818
▁제공할	-10.4819
▁것이고	-10.483
익	-10.4833
18	-10.4836
▁동성애자	-10.4837
▁록	-10.4843
▁손에	-10.4847
▁참여한	-10.4853
당국은	-10.4853
▁원숭이	-10.4853
▁방송사	-10.4854
▁수배	-10.4855
▁권고	-10.4857
▁내리	-10.4857
팅	-10.4865
▁되찾	-10.4866
소리	-10.4877
▁62	-10.4882
▁감금	-10.4884
▁South	-10.4884
▁블라디미	-10.4884
▁비핵화	-10.4884
▁뿌리	-10.4884
▁왼쪽	-10.4884
▁횡령	-10.4884
▁퇴임	-10.4884
▁논의하기	-10.4884
▁유혈사태	-10.4884
▁봉송	-10.4884
▁택시	-10.4884
▁낙태	-10.4884
▁암컷	-10.4884
▁교통사고	-10.4885
▁탄압	-10.4885
▁귀환	-10.4885
▁보존	-10.4887
▁체코	-10.489
▁65	-10.4892
▁드러냈다	-10.4893
▁문제들	-10.4894
▁거짓말	-10.4895
▁상공	-10.4895
▁반영	-10.4896
틴	-10.4896
▁초청	-10.4897
▁가족들이	-10.4897
▁정치인	-10.4898
▁꼭	-10.4899
▁깊이	-10.49
▁중심부	-10.4901
▁년간	-10.4902
▁일본에	-10.4905
▁경력	-10.4905
놀	-10.4912
뿐만아니라	-10.4913
▁분명	-10.4914
▁뇌물	-10.4914
▁위대	-10.4918
▁주장하며	-10.492
▁식사	-10.4922
▁무시	-10.4923
▁일본인	-10.4924
▁예수	-10.4928
▁검은	-10.493
▁상태이다	-10.4931
300	-10.4934
사의	-10.4935
로운	-10.4936
800	-10.4937
▁경관	-10.4941
않게	-10.4946
▁제조업체	-10.4948
▁벌였	-10.4958
▁가게	-10.4966
▁싶어	-10.4966
▁달린	-10.4966
향	-10.4967
▁아들이	-10.4968
▁그대로	-10.497
▁이것	-10.4972
▁66	-10.4978
내내	-10.4984
▁주식시장	-10.4996
▁조약	-10.5
▁이용하는	-10.5002
▁합류	-10.5005
▁목격	-10.5013
▁사용했다	-10.5017
▁보내는	-10.5018
ge	-10.502
▁극장	-10.5021
▁파운드	-10.5031
▁건물이	-10.5032
쳤	-10.5037
▁하루에	-10.5039
▁입을	-10.5043
▁해도	-10.5045
▁명확	-10.5045
▁지점	-10.5047
택	-10.5047
▁성직자	-10.5048
▁모른다고	-10.5051
▁잡아	-10.5055
▁올라가	-10.5058
▁승려들	-10.5063
▁교도소에	-10.5067
▁모르	-10.5067
▁국민들이	-10.507
▁거절했다	-10.5074
▁경험이	-10.5076
▁국적	-10.5077
▁적십자	-10.508
▁중단할	-10.5081
27	-10.5081
▁나에게	-10.5089
▁최저	-10.509
400	-10.5093
닥	-10.5094
17	-10.5095
닉	-10.5097
▁관영	-10.5099
21	-10.5099
▁보는	-10.51
켈	-10.5101
▁광범위	-10.5102
▁윔블던	-10.5102
▁with	-10.5102
▁will	-10.5102
▁영웅	-10.5102
▁파나마	-10.5102
▁저희	-10.5103
▁진행자	-10.5103
▁붙잡	-10.5104
▁할머니	-10.5104
▁1995	-10.5104
▁종료	-10.5105
▁미군과	-10.5105
▁다국적군	-10.5105
▁특수	-10.5106
▁화려	-10.5107
▁범행	-10.511
▁비율	-10.511
▁주었다	-10.5111
▁연구에	-10.5112
▁Japan	-10.5112
▁전국적으로	-10.5112
▁월요일에	-10.5113
▁발포	-10.5113
▁사실은	-10.5113
▁동기	-10.5113
에이커	-10.5114
▁이륙	-10.5116
▁코끼리	-10.5116
▁보고서에따르면	-10.5116
분만에	-10.5121
▁성장률	-10.5122
500	-10.5122
▁늘어나	-10.5122
▁내려졌다	-10.5125
▁상당히	-10.5126
▁비교적	-10.5129
▁기대한다	-10.5129
▁존중	-10.5132
됩니다	-10.5134
▁생산량	-10.5138
▁많아	-10.5138
▁하나인	-10.5138
▁성당	-10.5139
▁보호하기	-10.5141
물이	-10.5141
▁PKK	-10.5141
▁운전사	-10.5146
▁기부	-10.5147
역을	-10.5149
▁나왔	-10.515
▁해병	-10.515
만에	-10.5153
▁늘리	-10.5159
▁재판관	-10.5159
▁론	-10.5162
지수는	-10.5167
▁레바논군	-10.5172
▁오브	-10.5172
드로	-10.5173
▁투쟁	-10.5176
▁증세	-10.5178
대회	-10.5178
▁주위	-10.5179
▁밴드	-10.5179
▁데에	-10.518
▁유럽에서	-10.5183
45	-10.5188
▁바라	-10.5189
자금	-10.5192
▁끝나	-10.5195
▁언론에	-10.52
▁발견되었다	-10.5202
▁브라운은	-10.5204
▁순위	-10.5208
▁치러지	-10.5213
로스	-10.5222
젤	-10.5223
주에서	-10.5229
렉	-10.5246
▁카불	-10.5259
졌다고	-10.526
▁자택	-10.5262
▁마비	-10.5262
▁비난하는	-10.5266
녀	-10.5275
▁연주	-10.5277
▁감소했다	-10.5283
▁용의자로	-10.5284
28	-10.5285
▁모색	-10.529
▁먹이	-10.529
▁지정	-10.5293
▁푸	-10.5293
▁노동자들	-10.5301
▁운영하고	-10.5305
▁경비	-10.5311
슬	-10.5314
▁상태에서	-10.5315
▁최근에	-10.5316
▁벽	-10.5316
▁돌파	-10.5319
▁통신이	-10.5322
▁아닙니다	-10.5324
▁재검토	-10.5324
▁쿠웨이트	-10.5324
▁객실	-10.5324
▁로딕	-10.5324
▁MBC	-10.5324
▁득표율	-10.5325
▁로이터	-10.5325
▁슈퍼	-10.5325
▁1993	-10.5326
▁케이트	-10.5327
▁실업률	-10.5328
▁세웠다	-10.5328
▁통증	-10.5328
▁무장대원	-10.5329
▁사용해	-10.533
▁졸리	-10.533
▁판정	-10.533
▁먼	-10.5331
▁차별	-10.5331
▁드러내	-10.5332
▁반박	-10.5332
▁보일	-10.5333
▁숲	-10.5335
▁조지아주	-10.5335
▁촬영한	-10.5335
▁개편	-10.5336
검	-10.5338
해야만	-10.5338
tion	-10.534
▁키우	-10.5341
▁윤	-10.5345
▁교황은	-10.5346
대사	-10.5347
우스	-10.5348
2005.09	-10.535
▁안전보장이사회	-10.5352
▁열렸다	-10.5353
▁범인이	-10.5355
균	-10.5356
충	-10.5356
참	-10.5357
싱	-10.5358
`	-10.5362
▁계속되는	-10.5363
▁보이며	-10.5364
▁피부	-10.5367
▁철	-10.5367
▁심의	-10.537
▁가족이	-10.5381
▁국민들에게	-10.5382
▁정지	-10.5385
▁발견한	-10.5385
▁북부에	-10.5387
▁자택에서	-10.5389
디스	-10.5389
▁침입	-10.5393
▁근로자들	-10.5394
비용	-10.5398
▁표명했다	-10.5398
▁가해	-10.5399
▁알지	-10.5399
▁근거로	-10.5405
▁팀이	-10.5406
▁무게	-10.5407
ng	-10.541
▁웃	-10.5413
릭	-10.5417
▁페이지	-10.5426
▁실시할	-10.5429
위인	-10.5434
▁흔	-10.5434
▁줄어들	-10.5436
▁자사	-10.5437
▁잡스	-10.5438
▁예루살렘	-10.5438
▁미치는	-10.5441
▁47	-10.5442
▁부모들	-10.5448
▁법무장관	-10.5461
▁취해	-10.5463
▁생각했다	-10.5463
▁기다리	-10.547
▁운명	-10.547
▁수사관	-10.5471
돼야	-10.5474
▁발표됐다	-10.5477
▁사막	-10.5478
째	-10.5479
▁41	-10.548
▁월가	-10.5482
▁협상에	-10.5483
ha	-10.5486
380	-10.5493
▁냈다	-10.5498
▁연관	-10.5498
점으로	-10.5499
600	-10.55
▁후보인	-10.5501
▁이름이	-10.5511
원은	-10.5512
타르	-10.5522
▁품	-10.5524
긍정적인	-10.5526
▁수위	-10.5527
▁정책에	-10.5529
군이	-10.5529
▁변호사가	-10.553
▁화면	-10.5532
▁한국인들	-10.5543
욕	-10.5547
핑	-10.5547
▁선원	-10.5547
▁세우	-10.5548
▁떠	-10.5548
▁응급	-10.5549
▁애리조나	-10.555
닷컴	-10.5551
▁관타나모	-10.5551
▁디지털	-10.5551
▁마돈나	-10.5551
▁뭄바이	-10.5551
▁없습니다	-10.5551
▁오토바이	-10.5551
▁캐릭터	-10.5551
▁징계	-10.5551
▁펀드	-10.5551
▁보이콧	-10.5551
▁여섯	-10.5551
▁어깨	-10.5551
사이	-10.5552
▁탈락	-10.5552
▁탄광	-10.5553
▁영양	-10.5553
▁보였다고	-10.5555
▁로스	-10.5555
▁매달	-10.5558
▁원래	-10.5561
▁당초	-10.5561
측에	-10.5563
▁하락한	-10.5563
▁마친	-10.5565
▁통과시켰다	-10.5565
▁긍정적	-10.5576
▁여겨지	-10.5578
▁하미	-10.5578
▁사체	-10.5578
▁부실	-10.5578
▁2005.10	-10.558
▁사법	-10.5582
좌	-10.5586
생활	-10.5588
헤	-10.5588
▁싸	-10.5589
칸	-10.5592
6000	-10.5593
콜	-10.5593
▁베르	-10.5593
▁용기	-10.5593
7000	-10.5595
▁정전	-10.56
▁무어	-10.5603
▁기상청	-10.5604
어스	-10.5605
연구	-10.5608
▁소위	-10.5614
x	-10.5621
▁보고서에	-10.5621
▁만들기	-10.5624
▁필요성	-10.5624
▁동의했다	-10.5636
지역에	-10.5636
분께	-10.5642
달러로	-10.5643
▁작업에	-10.5652
▁여지	-10.5652
▁미니	-10.5653
V	-10.5656
▁얼	-10.5659
▁후보들	-10.5668
▁쓰고	-10.5673
▁군사적	-10.5678
▁제리	-10.5679
13	-10.5679
▁펼치	-10.569
▁증	-10.5694
▁만족	-10.5696
린다	-10.57
됐다며	-10.57
▁국기	-10.5702
포드	-10.571
▁여성들이	-10.5714
에게서	-10.5717
▁정의	-10.5718
▁프라이머리에서	-10.5723
▁적절	-10.5732
▁스테	-10.5734
▁방문하는	-10.5735
진다	-10.5736
객	-10.5738
▁보험	-10.5741
▁내일	-10.5747
▁물러나	-10.5749
▁지지하고	-10.5753
▁88	-10.5758
▁거주하	-10.5766
시킨다	-10.577
마자	-10.5771
옥	-10.5779
징	-10.578
▁수송	-10.5782
▁경기침체	-10.5784
▁마흐디	-10.5784
▁메르켈	-10.5784
▁파바로티	-10.5784
▁줄기세포	-10.5784
▁본격적	-10.5784
▁벽돌	-10.5784
▁쉽지	-10.5784
▁완료	-10.5784
▁않았으나	-10.5784
▁라이언	-10.5785
▁외곽	-10.5785
▁외무성	-10.5785
▁황금	-10.5785
▁떠날	-10.5785
▁국제공항	-10.5785
▁있었습니다	-10.5786
▁생물	-10.5787
▁끝날	-10.5788
▁소식에	-10.5791
▁등으로	-10.5794
▁보급	-10.5798
▁상호	-10.5799
▁이루어지	-10.5804
▁존경	-10.5804
▁아르	-10.5816
▁지지한다	-10.5824
회담	-10.5825
▁양국은	-10.5825
ear	-10.583
홀	-10.5833
사항	-10.5841
음을	-10.5843
▁시인	-10.5846
수술	-10.5847
▁조지아	-10.5848
▁기쁘다	-10.5848
▁약화	-10.5858
▁코치	-10.586
▁목표는	-10.586
▁브리	-10.5864
▁주장한다	-10.5866
▁약세	-10.5866
11	-10.5867
▁95	-10.5869
▁올려	-10.587
▁소식은	-10.587
▁실종자	-10.5871
▁청사	-10.5872
▁전달했다	-10.5872
▁문제와	-10.5877
▁테러범	-10.5879
▁논	-10.5882
▁73	-10.5885
▁실시했다	-10.5887
만개	-10.5887
▁미국인들이	-10.5887
▁흥분	-10.5891
차량	-10.5893
▁신사	-10.5894
▁지지자들이	-10.5897
▁승인했다	-10.5897
▁뒤에	-10.5904
▁국민의	-10.5904
▁예상되	-10.5905
관련	-10.5907
▁전부	-10.5911
부는	-10.5912
▁부부가	-10.5917
▁와인	-10.5917
▁주장한	-10.5919
▁남편이	-10.5922
겼	-10.5926
▁마을에서	-10.5927
▁놀	-10.5928
비치	-10.5928
▁적발	-10.5934
▁일이다	-10.5935
단계	-10.5935
으려	-10.594
▁기분	-10.5943
▁국가들은	-10.5945
▁상하이	-10.5946
▁맨	-10.5954
되었	-10.5956
▁강세	-10.5961
▁몰고	-10.5961
▁법안은	-10.5965
▁세계적	-10.5965
▁관계에	-10.5967
▁학교에	-10.5988
능	-10.5992
▁방법은	-10.5993
▁대가	-10.5993
▁합의한	-10.6
▁법원에서	-10.6001
▁공약	-10.6005
▁통계	-10.6009
검사	-10.601
쪽	-10.6017
▁포함됐다	-10.6018
▁쓰레기	-10.602
▁느낄	-10.6022
▁다큐멘터리	-10.6022
▁루아얄	-10.6022
▁에넹	-10.6022
▁우주왕복선	-10.6022
▁울포위츠	-10.6022
▁이뤄진	-10.6022
▁펠로시	-10.6022
▁플라스틱	-10.6022
▁plan	-10.6022
▁돌고래	-10.6022
▁벌써	-10.6022
▁애완견	-10.6022
▁데이빗	-10.6022
▁가짜	-10.6022
▁관람	-10.6022
▁빌딩	-10.6023
▁서울시	-10.6024
▁복역	-10.6024
▁사용하고	-10.6025
▁성격	-10.6028
▁밀려	-10.6028
▁백신	-10.6028
▁상대방	-10.6028
▁조언	-10.6028
▁음성	-10.603
▁본토	-10.6032
▁승부	-10.6032
▁연계	-10.6033
▁도심	-10.6034
▁재임	-10.6034
▁모금	-10.6037
▁우즈	-10.6039
▁투표에	-10.604
▁산타	-10.6046
대통령	-10.6047
브라	-10.6047
▁남용	-10.605
▁인력	-10.605
▁HIV	-10.6052
▁오하이오주	-10.6053
▁불이	-10.6061
▁소득	-10.6061
▁포함돼	-10.6062
▁세트	-10.6064
▁해당하는	-10.6064
▁다음주	-10.6071
▁승객들	-10.6073
홍	-10.6073
롤	-10.6073
값	-10.6074
규모	-10.6075
칼	-10.6076
앤	-10.6078
시스템	-10.6078
▁조사에따르면	-10.6082
▁전통적	-10.6086
▁IOC	-10.6098
▁이민	-10.6099
▁입수	-10.61
▁인근에서	-10.6103
▁부검	-10.6106
▁스턴	-10.6111
▁화물	-10.6111
본부	-10.6112
▁동물들	-10.6116
▁살해했다	-10.6117
하다며	-10.612
▁보게	-10.6121
사회	-10.6123
▁자리에	-10.6126
▁말해	-10.6127
▁무리	-10.6129
▁제공한	-10.6137
▁테러리스트들	-10.6145
▁생각하지	-10.6145
▁가을	-10.6151
26	-10.6151
▁기소된	-10.6151
▁미스	-10.6154
▁래	-10.6155
▁다르다	-10.6158
▁갖	-10.616
▁연구원들	-10.6174
▁바스라	-10.6176
de	-10.6183
▁있을지	-10.6185
▁회	-10.6185
▁밝히	-10.6188
▁온도	-10.6188
▁양측은	-10.6196
가격	-10.6196
금을	-10.6199
▁하나로	-10.6205
▁반대로	-10.6209
▁39	-10.6219
▁58	-10.6224
▁이식	-10.6228
▁맛	-10.6229
해진	-10.623
▁요청을	-10.623
▁부르	-10.6231
념	-10.6238
럴	-10.6239
▁밴	-10.6248
냈다	-10.6252
900	-10.6258
넷	-10.6264
▁파트너	-10.6265
▁끔찍	-10.6266
▁무슬림	-10.6266
▁사우스캐롤라이나	-10.6266
▁식료품	-10.6266
▁아테네	-10.6266
▁알렉산더	-10.6266
▁없고	-10.6266
▁일으킬	-10.6266
▁허커비	-10.6266
▁협약	-10.6266
넨	-10.6266
▁국제원자력기구	-10.6266
▁배터리	-10.6266
▁예를들어	-10.6266
▁시라크	-10.6266
▁화이트	-10.6266
▁전당대회	-10.6266
▁특징	-10.6266
▁롤링	-10.6266
▁일어날	-10.6266
▁소련	-10.6267
▁선수로	-10.6267
▁물러	-10.6268
▁않았습니다	-10.6268
▁탄생	-10.6268
▁구축	-10.6268
▁레이건	-10.6269
▁척	-10.6269
▁보도에	-10.627
▁브랜드	-10.6271
▁가졌	-10.6271
▁배후	-10.6273
라면	-10.6275
▁죽음을	-10.6276
▁진보	-10.6276
▁러드	-10.6277
▁54	-10.6282
▁부채	-10.6284
▁사설	-10.6285
▁뱀	-10.6287
▁2008.10	-10.6287
▁공산주의	-10.6288
▁아난	-10.629
▁경비대	-10.629
▁보건부	-10.6293
▁격렬한	-10.6294
업계	-10.6295
▁분석가들은	-10.6298
▁알렸다	-10.6299
▁요구하며	-10.63
▁상상	-10.6301
▁군함	-10.6302
육	-10.6304
▁움직임은	-10.6308
▁결과로	-10.6309
▁자신감	-10.6314
▁빠졌다	-10.6315
▁포장	-10.6318
다라고	-10.6322
▁독도	-10.6327
▁나선	-10.633
4000	-10.6331
▁처해	-10.6344
▁뉴욕주	-10.6345
▁요인	-10.6346
▁진지	-10.6349
▁맡고	-10.6353
▁지점에서	-10.636
▁올랐	-10.6363
▁140	-10.6365
▁무고	-10.6366
공사	-10.6369
ary	-10.6374
▁십	-10.6382
금지	-10.6386
▁탑승객	-10.6387
ig	-10.6388
▁끼	-10.6389
▁출연한	-10.639
▁코커스	-10.6397
▁커지	-10.6398
▁범	-10.6399
▁노리	-10.64
▁회의에	-10.6403
장의	-10.6405
▁회원국들	-10.6409
측이	-10.642
▁베를린	-10.642
▁m	-10.6422
▁어렵다	-10.6428
▁입었	-10.6442
▁따르	-10.6446
▁4000	-10.6456
tor	-10.6466
▁구체적	-10.6469
▁성명은	-10.6473
▁개인적	-10.6477
▁여론조사에서	-10.6479
▁연안	-10.6481
▁건너	-10.6481
▁특	-10.6483
▁즐기	-10.6483
▁사진이	-10.6483
▁포경	-10.6486
▁여러분	-10.6494
▁했으나	-10.6498
▁향한	-10.6501
▁대학생	-10.6502
▁데일리	-10.6508
▁날아	-10.6509
▁풍	-10.6509
▁신문사	-10.651
▁매춘	-10.6511
▁코미디	-10.6515
▁아름다	-10.6515
▁낮추	-10.6516
▁매니저	-10.6516
▁옮기	-10.6516
▁조승희	-10.6516
▁카트리나	-10.6516
▁히틀러	-10.6516
▁China	-10.6516
▁옹호	-10.6516
▁주유소	-10.6516
▁침략	-10.6516
▁정거장	-10.6516
▁경기부양책	-10.6516
▁최루탄	-10.6516
▁국립공원	-10.6516
▁자선단체	-10.6516
▁포셋	-10.6516
▁침공	-10.6516
▁우간다	-10.6516
▁억제	-10.6517
▁함유	-10.6517
▁벗어	-10.6518
▁팝	-10.6518
▁쿠퍼	-10.6518
▁라덴	-10.6519
▁계산	-10.6519
▁풍부	-10.6519
▁완성	-10.652
▁분량	-10.652
▁로저	-10.6521
▁오른쪽	-10.6521
▁서양	-10.6522
▁구류	-10.6524
▁배제	-10.6525
▁파키스탄군	-10.6525
▁포터	-10.6526
▁멀리	-10.6527
▁무슨	-10.6527
▁인공	-10.6527
▁접수	-10.6528
▁예약	-10.6529
▁발발	-10.653
▁유산	-10.6531
▁경로	-10.6532
▁재직	-10.6533
▁호소했다	-10.654
▁부산	-10.6542
▁모자	-10.6543
▁일에	-10.6544
▁범위	-10.6545
▁벌어졌다	-10.6545
▁메일	-10.6546
속도로	-10.655
놓	-10.6552
▁국가들이	-10.6552
▁아메리카	-10.6557
▁정상화	-10.6561
▁소유하고	-10.6561
▁앉아	-10.6561
▁over	-10.6565
▁확실한	-10.6566
수는	-10.6567
▁발표했습니다	-10.6567
어로	-10.6569
▁착수했다	-10.6569
연맹	-10.6571
▁후원	-10.6571
렸으며	-10.6572
▁서안	-10.6578
시대	-10.6579
짓	-10.658
덕	-10.6581
시위	-10.6582
었다며	-10.6583
▁득점	-10.6586
▁가상	-10.6587
▁촉진	-10.6588
▁모건	-10.6589
▁참여할	-10.6596
▁사고는	-10.6596
▁손해	-10.6598
▁털	-10.6599
▁법정에서	-10.6609
▁판결이	-10.6611
▁독일인	-10.6613
▁지휘관	-10.6616
▁대통령직	-10.6617
▁조건으로	-10.6625
▁지식	-10.6629
▁토지	-10.663
▁전역에서	-10.6635
▁해서	-10.6638
▁당해	-10.664
▁신조	-10.6645
▁멜	-10.665
버스	-10.6652
▁유인	-10.666
▁타임스	-10.6664
▁지원할	-10.6664
결과	-10.6669
▁직원이	-10.6673
▁지도자가	-10.6674
▁확신한다	-10.6678
▁수상한	-10.668
사고	-10.6681
▁대법원장	-10.6685
▁연행	-10.6694
▁예정인	-10.6703
▁증상	-10.6709
▁비행사	-10.6709
쪽으로	-10.671
ne	-10.671
▁건강이	-10.671
▁입지	-10.6714
▁후보자	-10.673
▁한국이	-10.6737
44	-10.6742
사와	-10.6746
업자들	-10.6748
▁돌려	-10.6753
ain	-10.6755
▁용	-10.6755
mm	-10.6755
79	-10.6758
▁인질들을	-10.676
▁콜로라도	-10.6762
렐	-10.6769
▁개막	-10.677
▁쏟아	-10.6771
▁테니스	-10.6771
▁DVD	-10.6772
▁낮아	-10.6772
▁로드리게스	-10.6772
▁망원경	-10.6772
▁무렵	-10.6772
▁성추행	-10.6772
▁없게	-10.6772
▁에릭	-10.6772
▁지지선언	-10.6772
▁피라미드	-10.6772
▁항공우주국	-10.6772
▁징후	-10.6772
▁따뜻	-10.6772
▁인터폴	-10.6772
▁좌절	-10.6772
▁터널	-10.6772
▁화합	-10.6774
▁술집	-10.6774
▁점검	-10.6774
▁체류	-10.6774
▁숨졌으며	-10.6774
▁타밀	-10.6775
▁NK	-10.6775
▁계속된	-10.6776
▁않습니다	-10.6776
▁두번째	-10.6776
▁911	-10.6779
▁제시했다	-10.678
▁반복	-10.6781
▁형식	-10.6781
▁1960	-10.6782
▁휴대	-10.6783
▁지역인	-10.6783
▁미첼	-10.6785
▁준수	-10.6785
▁매체	-10.6786
▁목사는	-10.6787
▁표면	-10.679
▁사라졌다	-10.6792
강전에서	-10.6793
▁뿐이다	-10.6793
▁대서양	-10.6794
▁위원	-10.6795
이었습니다	-10.6795
므로	-10.6797
▁당부했다	-10.6797
▁1500	-10.6798
▁선고했다	-10.68
▁신분	-10.6801
▁경쟁력	-10.6802
▁가난한	-10.6803
▁모리	-10.6804
▁임대	-10.6805
▁동료들	-10.6814
▁겨	-10.6817
지구	-10.6817
▁남부에	-10.6818
▁72	-10.6819
▁알려	-10.6822
▁다가	-10.6824
▁플로리다주	-10.6825
▁해상	-10.6831
▁노력이	-10.6836
최	-10.6836
이번	-10.6838
걸	-10.684
희	-10.6841
▁유전	-10.6842
▁내려진	-10.6842
킬로미터	-10.6843
▁문구	-10.6844
▁NATO	-10.6844
스런	-10.6844
▁싱	-10.6845
▁않았고	-10.6847
연구소	-10.6852
▁대전	-10.6852
▁건강에	-10.6858
구조	-10.6862
▁mo	-10.6864
▁최대의	-10.6864
▁가방	-10.6868
▁대표들	-10.6874
▁이용한	-10.6877
▁FRB	-10.6879
▁민족	-10.6881
▁정권이	-10.6881
▁달한다	-10.6883
원인	-10.6885
▁맡	-10.6886
세이	-10.6889
▁가족들과	-10.6889
▁신장	-10.6891
▁살아있	-10.6897
▁넘기	-10.6906
▁회담의	-10.6917
▁시인했다	-10.6919
▁거부하	-10.6923
▁선거법	-10.6927
▁회견	-10.6927
▁하나는	-10.6931
냈	-10.6932
▁햄	-10.6935
ex	-10.6936
▁체포되었다	-10.6936
▁희망한다	-10.6941
▁먹고	-10.6942
련	-10.6944
▁봉사	-10.6944
▁소식통이	-10.6948
man	-10.6953
적이고	-10.6954
▁안으로	-10.6955
▁편집	-10.6962
▁e	-10.6963
장으로	-10.6964
▁희생	-10.6974
▁무장세력이	-10.6976
▁보인	-10.6976
▁착수	-10.6983
▁못했	-10.6992
소를	-10.6993
▁기업의	-10.6998
았습니다	-10.6999
▁받아들이	-10.7002
▁지대	-10.7003
▁유도	-10.7015
▁구멍	-10.7019
▁혼자	-10.7027
▁국가로	-10.7027
▁소탕	-10.7031
웅	-10.7031
▁출입	-10.7032
▁당국자들	-10.7032
둥	-10.7033
▁은행에	-10.7034
▁국가비상사태	-10.7034
훈	-10.7034
▁President	-10.7035
▁나눴다	-10.7035
▁도요타	-10.7035
▁두려움	-10.7035
▁멤버	-10.7035
▁뮤지컬	-10.7035
▁바티칸	-10.7035
▁심장마비	-10.7035
▁이뤄질	-10.7035
▁후지모리	-10.7035
▁국제우주정거장	-10.7035
▁수류탄	-10.7035
▁포르노	-10.7035
▁스크린	-10.7035
▁퇴진	-10.7035
▁서식지	-10.7035
▁불가리아	-10.7035
▁노르웨이	-10.7035
▁샘플	-10.7035
▁브리핑	-10.7035
▁앤드류	-10.7036
▁검증	-10.7036
▁의약품	-10.7036
▁아스날	-10.7036
▁교외	-10.7037
▁포럼	-10.7037
▁정착	-10.7038
▁영화배우	-10.7038
ational	-10.7038
▁금액	-10.7038
▁몰려	-10.7039
▁송금	-10.7039
▁오마르	-10.7039
▁때문	-10.704
▁테러조직	-10.704
way	-10.7041
▁로켓포	-10.7041
▁향상	-10.7041
▁서류	-10.7042
▁미디어	-10.7044
▁고위급	-10.7044
▁집권당	-10.7045
▁불구	-10.7045
▁개체수	-10.7046
▁고급	-10.7046
▁제목	-10.7046
▁리처드슨	-10.7047
▁자동	-10.7048
▁수컷	-10.7048
▁통보	-10.7049
▁총통	-10.705
▁모임	-10.705
▁양쪽	-10.705
▁해저	-10.7051
▁물체	-10.7053
▁상관	-10.7053
▁한국은행	-10.7055
▁좁	-10.7057
▁1,000	-10.7058
▁160	-10.706
▁나이트	-10.7064
▁포함하여	-10.7066
▁승	-10.7069
▁레드	-10.7069
리스트	-10.707
▁공격했다	-10.7072
▁참석하지	-10.7073
▁걸렸다	-10.7076
▁처한	-10.7076
▁카를로	-10.7078
▁사면	-10.7082
▁나토군	-10.7083
▁공개하지	-10.7084
▁비난하며	-10.709
▁간에	-10.709
▁광장	-10.709
▁로브	-10.7091
▁개시	-10.7098
▁도구	-10.7098
▁환호	-10.71
▁해주	-10.71
▁아프	-10.7101
식이	-10.7103
ry	-10.7104
▁얻게	-10.7105
▁에어	-10.7106
칭	-10.7106
▁성공한	-10.7107
▁테러에	-10.7107
폐	-10.7109
▁테리	-10.711
▁학교에서	-10.711
벽	-10.7112
85	-10.7112
▁UEFA	-10.7114
Y	-10.7115
▁추세	-10.7115
▁군이	-10.7116
me	-10.7116
IAEA	-10.7117
NASA	-10.7118
▁경매에	-10.7119
▁생각이	-10.7126
▁신도들	-10.7127
디아	-10.713
62	-10.7135
im	-10.7137
▁유지하고	-10.7137
▁이슈	-10.7138
▁얻고	-10.7145
▁판매량	-10.7146
▁부분이	-10.7149
▁탈레반이	-10.715
세계	-10.7153
▁압수	-10.7156
▁단체인	-10.7158
호가	-10.7158
▁장군은	-10.7162
명인	-10.7166
▁항의하	-10.7167
▁건물에	-10.7172
▁전해지	-10.7173
▁농민들	-10.7176
48	-10.7176
▁부족하다	-10.7182
▁출두	-10.7184
▁바르	-10.7184
현지	-10.7186
겠습니다	-10.7188
71	-10.7196
ant	-10.7196
▁담은	-10.7205
스테	-10.7206
▁열고	-10.7212
▁대로	-10.7213
▁상황이다	-10.7223
▁69	-10.7226
바르	-10.723
조사	-10.7235
mp	-10.7236
▁풀어	-10.7237
▁상영	-10.7237
▁부당	-10.7239
대와	-10.7239
▁출생	-10.724
▁게리	-10.7244
▁참가자들	-10.7254
▁촉발	-10.7256
▁도시인	-10.7267
▁상을	-10.7269
▁영국과	-10.7275
▁농장	-10.7283
▁석방됐다	-10.7288
첼	-10.7291
▁게재	-10.7291
▁새롭	-10.7295
▁플라	-10.7297
76	-10.73
춘	-10.7301
▁화가	-10.7301
▁높게	-10.7305
▁베네딕	-10.7305
▁싶지	-10.7305
▁음주운전	-10.7305
▁평화유지군	-10.7305
▁프랭크	-10.7305
5,000	-10.7305
▁내무장관	-10.7305
▁막대한	-10.7306
▁탐험	-10.7306
▁에드워드	-10.7306
▁맥캔	-10.7306
▁빅토리아	-10.7306
▁헌법재판소	-10.7306
▁아빠	-10.7307
▁살아남	-10.7307
▁자동차업계	-10.7308
▁거짓	-10.7308
▁들어갈	-10.7309
▁존스턴	-10.7309
▁크리스티	-10.7309
▁않는다면	-10.731
▁핵개발	-10.731
▁채취	-10.7311
▁일련	-10.7311
▁달간	-10.7312
전에서	-10.7315
▁선임	-10.7316
▁정기	-10.7316
▁대대적	-10.7317
▁받아왔다	-10.7318
▁점거	-10.7319
▁국방성	-10.7319
▁왕세자비	-10.7319
▁경호	-10.7323
▁반등	-10.7325
▁구조작업	-10.7327
▁얼마전	-10.7329
▁운동가들	-10.733
▁전반적인	-10.7331
▁곰	-10.7334
▁작업이	-10.7336
▁안내	-10.7337
▁함	-10.7338
▁원인이	-10.7341
▁남자아이	-10.7341
▁잠재적	-10.7341
▁우세	-10.7347
▁던졌다	-10.7349
(1	-10.7353
▁서서	-10.7353
▁지위	-10.7355
▁돌아왔다	-10.7358
▁고려하고	-10.7359
▁지방에서	-10.7362
▁장군	-10.7363
파운드	-10.7372
▁확산되고	-10.7375
▁지켜보	-10.7377
▁제정	-10.7378
▁불어	-10.738
셀	-10.738
▁판다	-10.738
병원	-10.7381
▁개성	-10.7383
스럽게	-10.7384
맥	-10.7392
풀	-10.7394
▁오바마에	-10.7396
▁해적들	-10.7396
▁확실	-10.7397
▁이라크인	-10.7398
▁물어	-10.7403
▁외상	-10.7404
장과	-10.7404
어진	-10.7405
▁정부군과	-10.7406
▁김치	-10.7407
▁WHO	-10.7408
▁클	-10.7412
▁수면	-10.7414
▁유해	-10.7416
년과	-10.742
▁out	-10.742
▁담당자	-10.7425
▁요원들	-10.7429
었는지	-10.7429
▁시작으로	-10.7434
▁프	-10.7434
▁보냈	-10.7435
▁바지	-10.7436
단은	-10.7442
▁동맹국	-10.7444
▁일어났	-10.745
▁무샤라프는	-10.7454
▁남아있다	-10.7454
▁수행할	-10.7457
기록	-10.7462
▁제출한	-10.7463
▁윈	-10.7464
▁5000	-10.7466
▁차지하는	-10.7487
▁국가에	-10.7493
▁장관과	-10.7498
35	-10.7518
▁광부	-10.7518
군은	-10.752
▁동성애	-10.7527
잡	-10.753
▁7000	-10.7532
24	-10.7532
▁BA	-10.7533
ay	-10.7535
▁정리	-10.7535
▁정상들	-10.754
과정	-10.7541
▁당황	-10.7542
다란	-10.7542
▁소식통	-10.7545
▁조사한	-10.7548
▁취했다	-10.7551
▁몸에	-10.7556
학생	-10.7557
ke	-10.7557
▁보조	-10.756
▁일대	-10.7561
켜	-10.7563
▁권	-10.7564
펜	-10.7576
왈	-10.7578
▁휩쓸	-10.758
랭	-10.7583
짝	-10.7583
▁급습	-10.7583
▁멈추	-10.7583
▁믿을	-10.7583
▁앞섰다	-10.7583
▁우울증	-10.7583
▁유람선	-10.7583
▁이산화탄소	-10.7583
▁인명피해	-10.7583
▁자르다리	-10.7583
▁찾지	-10.7583
▁최첨단	-10.7583
▁퍼거슨	-10.7583
▁펼친	-10.7583
▁글로벌	-10.7583
▁라호르	-10.7583
▁허드슨	-10.7583
▁삭감	-10.7583
▁빼앗	-10.7583
▁온실가스	-10.7583
▁아마디네자드	-10.7583
▁티벳	-10.7583
▁라파엘	-10.7583
▁자전거	-10.7583
▁브레이크	-10.7583
▁이자율	-10.7584
▁품목	-10.7584
▁워렌	-10.7584
▁아프간에	-10.7585
▁산맥	-10.7585
▁망	-10.7586
▁이루어진	-10.7587
▁학생이	-10.7587
▁여부에	-10.7588
▁상담	-10.7589
▁던져	-10.7589
▁착용	-10.7589
▁통행	-10.759
▁의심되는	-10.759
▁단행	-10.759
▁밝혔으며	-10.7592
▁접전	-10.7592
▁심판	-10.7592
▁유통	-10.7592
▁공판	-10.7592
▁있은	-10.7593
▁등에	-10.7594
▁지도자는	-10.7594
▁장교	-10.7594
▁래리	-10.7594
▁멀	-10.7594
▁갈등	-10.7595
▁디자이너	-10.7597
▁수색작업	-10.7598
▁중요성	-10.7598
▁윌슨	-10.7599
▁전형적	-10.7601
▁신화	-10.7601
▁선거관리위원회	-10.7602
▁군사력	-10.7605
▁정계	-10.7606
▁발표하고	-10.7607
▁셰	-10.7608
▁양보	-10.7609
▁인형	-10.7609
점이	-10.7613
▁부품	-10.7615
▁투표율	-10.7617
▁차질	-10.7617
▁사회당	-10.7618
▁먹는	-10.762
▁67	-10.7621
시오	-10.7621
▁겸	-10.7623
▁좋아하는	-10.7624
네스	-10.7625
29	-10.7629
▁설	-10.763
▁포인트	-10.7634
▁상금	-10.7635
▁계좌	-10.7635
▁자치	-10.7635
▁인권단체	-10.7639
▁남측	-10.7641
리그	-10.7643
▁매수	-10.7643
▁맞은	-10.7643
▁상당수	-10.7649
▁주최	-10.7654
▁점수	-10.7656
▁중심지	-10.7656
▁사과했다	-10.7657
기자	-10.7662
▁요금	-10.7663
궁	-10.7664
▁목격했다	-10.7664
몰	-10.767
▁하면서	-10.7672
▁여행객들	-10.7674
쓰	-10.7676
협상	-10.7676
▁소년이	-10.768
김	-10.7681
▁63	-10.7682
1000	-10.7683
8000	-10.7684
BC	-10.7684
러시아	-10.7686
2000	-10.7686
년전	-10.7687
▁미국으로	-10.7696
▁계기	-10.7698
▁군과	-10.7699
▁가로	-10.7702
호를	-10.7702
▁고위관리	-10.7707
▁내렸	-10.7709
99	-10.7719
▁정보부	-10.772
▁클린턴과	-10.772
▁지분	-10.7721
텐	-10.7723
▁힘들다	-10.7727
▁기분이	-10.7729
▁표시했다	-10.7735
▁57	-10.7736
▁상사	-10.7741
▁다르	-10.7742
▁특파원	-10.7745
▁분야에서	-10.7747
ure	-10.775
23	-10.7765
국은	-10.7769
▁이슬라마바드	-10.7771
▁방문은	-10.7773
십	-10.7774
▁들어간	-10.7777
됐는지	-10.7778
▁흉	-10.7788
▁V	-10.7789
▁재정적	-10.7797
▁맞이	-10.7798
▁완	-10.7798
▁베리	-10.7805
▁투르	-10.7812
992	-10.7822
▁지나가	-10.7822
▁t	-10.7827
▁준다	-10.7832
▁다루	-10.7842
▁불리	-10.7843
▁입어	-10.7846
듯	-10.7853
▁국가에서	-10.7855
탁	-10.786
스카	-10.7864
▁에베레스트	-10.7867
릿	-10.7868
▁알바	-10.7869
▁맨해튼	-10.7869
▁믿는다	-10.7869
▁박격포	-10.7869
▁창기라이	-10.7869
▁찾았다	-10.7869
▁확률	-10.7869
밍	-10.7869
▁쇠고기	-10.7869
▁섹시	-10.7869
▁출구조사	-10.7869
▁롬니	-10.7869
▁코카인	-10.7869
▁고유가	-10.7869
▁언덕	-10.7869
▁농업	-10.787
▁남아프리카	-10.787
▁활발	-10.787
▁북부에서	-10.787
▁디스크	-10.787
2007.11	-10.787
▁좌석	-10.7871
▁돌아갈	-10.7871
▁설계	-10.7871
▁창출	-10.7872
▁가택	-10.7872
▁추모	-10.7872
▁물고기	-10.7873
▁관측	-10.7873
▁생명체	-10.7873
▁맞았다	-10.7873
▁미셸	-10.7874
▁제시한	-10.7874
▁밀러	-10.7875
▁환율	-10.7875
▁방출	-10.7875
▁아니지만	-10.7875
졌습니다	-10.7878
▁비서실장	-10.7879
▁연임	-10.788
러스	-10.7883
▁톰슨	-10.7883
▁시골	-10.7885
▁밝혀진	-10.7888
▁거친	-10.789
▁탄소	-10.7891
▁도난	-10.7891
▁인터넷에	-10.7895
▁넣었다	-10.7903
▁공무원	-10.7907
▁맡았다	-10.7908
▁위치해	-10.7909
▁출전하지	-10.7913
▁공안	-10.7925
▁패스	-10.7926
▁상세	-10.7928
▁절도	-10.7931
▁이틀간	-10.7933
▁업적	-10.7937
겼다	-10.7938
▁이름으로	-10.7938
▁저질렀다	-10.794
▁기원	-10.7942
▁바닥에	-10.7942
▁이어지	-10.7945
▁던지	-10.7946
▁돌아와	-10.7947
▁파리에서	-10.7947
▁뉴욕시	-10.7947
▁두려워	-10.7953
▁피고인	-10.7954
▁흔들	-10.7955
빙	-10.7965
▁떠난	-10.7965
▁웨이	-10.7968
않	-10.7969
▁어렵	-10.7971
▁불과하다	-10.7971
▁유기	-10.7973
con	-10.7975
캐	-10.7975
▁거리에서	-10.7981
▁타임	-10.7985
▁전합니다	-10.7985
스케	-10.7986
▁방송에	-10.7991
교육	-10.7993
▁68	-10.7993
▁권고했다	-10.7997
▁대원들	-10.7998
▁취하고	-10.7999
▁정기적	-10.8002
직원	-10.8002
▁하에	-10.8003
▁지고	-10.8003
버렸다	-10.8009
▁남쪽	-10.8012
St	-10.8014
▁갖는	-10.8018
▁교도소에서	-10.8018
▁출	-10.8027
▁맞고	-10.8042
▁필요로	-10.8045
▁홍	-10.8046
▁취한	-10.8055
▁펼쳐	-10.8056
▁바라는	-10.8056
▁강진이	-10.8062
전선	-10.8068
▁대학에서	-10.8071
▁입법	-10.8078
▁하자	-10.8089
▁막아	-10.809
▁출연했다	-10.8094
▁참가한	-10.8101
▁르	-10.8106
▁발휘	-10.8107
▁명백	-10.8113
▁처음에	-10.8114
▁묵	-10.8115
58	-10.8125
▁도착할	-10.8126
▁암시	-10.8131
▁재활	-10.8132
▁의상	-10.8138
화된	-10.815
노조	-10.8152
▁과격	-10.8153
▁여기에	-10.8155
▁visit	-10.8163
▁금메달	-10.8163
▁노트북	-10.8163
▁똑같	-10.8163
▁러닝메이트	-10.8163
▁메드베데프	-10.8163
▁시나리오	-10.8163
▁아웅산수치	-10.8163
▁피츠버그	-10.8163
껏	-10.8163
찌	-10.8163
▁데이비스	-10.8163
▁알제리	-10.8163
▁고릴라	-10.8163
▁교착상태	-10.8163
됨에따라	-10.8163
▁빠지	-10.8163
▁권총	-10.8164
▁저항세력	-10.8164
▁포획	-10.8164
▁물품	-10.8164
▁머레이	-10.8164
▁오늘밤	-10.8164
스티	-10.8164
▁가끔	-10.8164
▁처방	-10.8165
▁녹음	-10.8165
▁아는	-10.8165
▁호송	-10.8165
▁중앙은행	-10.8165
▁his	-10.8165
▁걸리	-10.8166
▁회계	-10.8166
▁연례	-10.8166
▁연구결과	-10.8166
▁추격	-10.8166
▁창설	-10.8167
▁지역사회	-10.8168
▁거부한	-10.8168
▁치매	-10.8169
▁오스카	-10.8169
▁초에	-10.8169
AN	-10.817
▁데리고	-10.8171
▁매매	-10.8172
▁펄	-10.8172
▁59	-10.8172
▁보수당	-10.8173
▁알렉스	-10.8173
▁열심	-10.8174
유로	-10.8175
▁기증	-10.8176
▁배심원단	-10.8176
▁부처	-10.8177
▁소동	-10.8177
▁에콰도르	-10.8177
▁야구	-10.8179
▁고안	-10.8181
▁피난	-10.8181
▁위하여	-10.8182
▁고조	-10.8189
리안	-10.8197
▁졸업	-10.8201
▁법안에	-10.8202
▁즐기는	-10.8202
▁해석	-10.8204
▁업무를	-10.8206
▁덜	-10.8206
▁교섭	-10.8206
▁NBA	-10.8207
▁말이	-10.8207
▁진행될	-10.8208
▁제공했다	-10.8209
78	-10.821
▁소비자들	-10.821
▁미성년자	-10.8211
▁끝났다	-10.8212
,500	-10.8213
▁담고	-10.8215
▁그랜드	-10.8217
▁턱	-10.8217
▁드레스	-10.8218
▁플레이어	-10.822
▁조사할	-10.8228
▁전격	-10.823
데스	-10.8232
▁회장이	-10.8236
▁수사관들은	-10.8238
더스	-10.824
▁관련하여	-10.8242
▁피어	-10.8243
▁침대	-10.8245
특	-10.8251
ong	-10.8252
구가	-10.8253
▁유발	-10.8255
▁남성의	-10.8261
▁이른다	-10.8263
복을	-10.8266
▁연말	-10.8269
끼	-10.8269
▁수여	-10.8269
▁신원이	-10.8271
j	-10.8275
▁학생들에게	-10.8275
하다는	-10.8275
▁나타내는	-10.8275
농	-10.8276
▁메리	-10.8277
햄	-10.8277
▁영화에	-10.8279
감독	-10.8285
▁총리직	-10.8285
▁살았	-10.8285
▁각자	-10.8296
▁세운	-10.8297
▁76	-10.8303
▁이적	-10.8304
▁남아있는	-10.8304
ow	-10.8306
명에서	-10.8306
▁수락	-10.8309
▁우승자	-10.8311
▁찾아내	-10.8311
투표	-10.8312
▁표준	-10.8314
▁육	-10.8315
▁열었다	-10.8316
ap	-10.8324
▁반지	-10.8324
▁모두에게	-10.8328
▁달러가	-10.8329
구를	-10.8331
▁마리아	-10.8333
▁부지	-10.8343
▁사용자들	-10.8345
나무	-10.8346
해서는	-10.835
해주	-10.8355
▁l	-10.8357
게임	-10.8364
▁게릴라	-10.8365
▁사안	-10.8366
▁간주	-10.837
어질	-10.8381
▁출산	-10.8383
기때문에	-10.8388
65	-10.8389
성에	-10.8399
▁배심원	-10.8402
▁응답	-10.8403
end	-10.8408
▁상자	-10.842
▁서쪽	-10.8428
▁신중	-10.8428
▁진전이	-10.8429
▁추구하	-10.843
▁co	-10.8432
스크	-10.8442
▁합의에	-10.8446
▁블루	-10.8446
▁묻는	-10.8449
ill	-10.845
▁브라이언	-10.8457
▁진행중	-10.8458
트라	-10.8461
▁어디	-10.8462
▁벌여	-10.8462
▁후임	-10.8465
딜	-10.8466
톨	-10.8466
틱	-10.8466
▁고이즈미	-10.8466
▁브래드	-10.8466
▁브루니	-10.8466
▁서브프라임	-10.8466
▁스타벅스	-10.8466
▁야생동물	-10.8466
▁유괴	-10.8466
▁힘입어	-10.8466
박근혜	-10.8466
▁무승부	-10.8466
▁적합한	-10.8466
▁깨끗	-10.8466
▁프리미어리그	-10.8466
▁해수면	-10.8466
▁자유무역협정	-10.8466
▁행렬	-10.8466
▁무소속	-10.8467
▁데뷔	-10.8467
▁슈퍼볼	-10.8467
▁앨런	-10.8467
▁긴밀	-10.8467
▁국민투표	-10.8467
▁모험	-10.8468
▁흘러	-10.8468
▁장벽	-10.8468
▁재고	-10.8468
▁예선	-10.8469
▁증강	-10.8469
▁1989	-10.8469
용으로	-10.8469
▁1986	-10.8469
▁제보	-10.847
▁금융시장	-10.8471
▁붙여	-10.8471
▁다행히	-10.8471
▁단독	-10.8471
▁텐트	-10.8471
▁호텔에	-10.8471
▁대테러	-10.8471
▁처형	-10.8471
▁승점	-10.8471
▁금속	-10.8472
▁파커	-10.8474
▁복원	-10.8474
▁Obama	-10.8475
널리	-10.8478
▁민주적	-10.8478
▁청구	-10.848
▁관객	-10.8481
▁인터	-10.8481
▁도청	-10.8482
▁아민	-10.8483
▁못했지만	-10.8484
▁아마디	-10.8485
▁1950	-10.8485
▁풀려났다	-10.849
▁화제	-10.8493
▁도살	-10.8496
분경	-10.8497
▁폴리	-10.85
▁파편	-10.85
▁재활용	-10.85
▁발견되지	-10.8503
▁보유한	-10.8503
▁사이클	-10.8503
해지고	-10.8504
바이	-10.8504
▁특사는	-10.8505
년형	-10.8505
월에는	-10.8506
▁사라진	-10.8506
▁해안에	-10.8507
▁대리인	-10.8509
▁헬	-10.8509
▁주연	-10.851
▁버지니아주	-10.851
▁세부	-10.8511
▁강간	-10.8512
▁지원하고	-10.8512
▁1.5	-10.8513
▁IMF	-10.8516
연승	-10.8517
▁인도분	-10.8519
▁붕괴된	-10.8527
▁국회에서	-10.853
om	-10.8535
▁사살했다	-10.8536
▁병력이	-10.8539
▁지원금	-10.854
▁경주	-10.8542
▁크다	-10.8542
▁시작될	-10.8543
▁클로	-10.8544
인데	-10.8547
▁82	-10.8548
대는	-10.8549
▁출신으로	-10.8551
▁이어졌다	-10.8553
▁틀	-10.8555
700	-10.8556
▁공룡	-10.8558
▁도와	-10.856
▁봉	-10.8563
원들이	-10.8566
▁현상이	-10.857
▁병사들이	-10.8572
▁포함된	-10.8572
▁MD	-10.8572
▁강타한	-10.8572
▁확인하기	-10.8572
▁대안	-10.858
▁국경지역	-10.8583
바로	-10.8586
▁대비해	-10.8591
▁가리	-10.8592
▁축	-10.8594
▁중단됐다	-10.8602
▁내용에	-10.8605
신문	-10.8605
▁사임했다	-10.8608
▁본다	-10.8612
▁방문해	-10.8616
▁열리	-10.8618
▁고무	-10.8623
▁취하	-10.8628
▁폭력사태로	-10.863
있었다	-10.8631
보호	-10.8633
▁크레	-10.8633
▁내리는	-10.8636
▁행위에	-10.8636
▁수감된	-10.8639
▁변화에	-10.8639
내용	-10.864
▁중이며	-10.8642
▁남성들	-10.8647
▁일어나지	-10.8651
▁인정하지	-10.8651
ess	-10.8651
전쟁	-10.8665
av	-10.8669
▁봤	-10.8672
84	-10.8672
▁상업	-10.8678
▁급증	-10.8681
▁클라	-10.8682
키로	-10.8685
▁준비하고	-10.8687
▁자녀들	-10.8689
▁궤도	-10.8691
▁파키스탄에서	-10.8692
기술	-10.8695
▁모르는	-10.8697
체제	-10.87
▁소유한	-10.8702
치료	-10.8704
▁위장	-10.8705
▁경비원	-10.8705
z	-10.8707
▁웨	-10.8708
만으로	-10.8709
▁이송됐다	-10.871
▁확신했다	-10.8712
▁클린턴에	-10.8714
▁급락	-10.8719
점에서	-10.8723
▁영국은	-10.8724
▁지원하는	-10.8725
▁코스	-10.8727
▁재판에서	-10.8728
해달라	-10.8733
▁친구들	-10.8745
구의	-10.8745
비스	-10.8748
▁청소	-10.875
▁이루어	-10.8752
▁갈라	-10.8752
▁가즈니	-10.8753
▁납치한	-10.8756
▁관객들	-10.8765
▁알라	-10.8766
▁폰	-10.8767
때까지	-10.8771
▁잇따	-10.8774
첸	-10.8774
▁넘겨	-10.8775
룰	-10.8775
▁빼	-10.8776
콤	-10.8777
▁FDA	-10.8779
▁from	-10.8779
▁뉴올리언스	-10.8779
▁압바스	-10.8779
▁애완동물	-10.8779
▁저렴	-10.8779
▁줬다	-10.8779
▁헬리콥터	-10.8779
▁호나우두	-10.8779
▁니케이	-10.8779
▁넬슨	-10.8779
▁바바라	-10.8779
▁휴스턴	-10.8779
▁신용카드	-10.8779
▁왜곡	-10.8779
▁군중	-10.8779
▁부사장	-10.8779
▁금융위기	-10.878
▁비틀즈	-10.878
▁경향	-10.878
▁연극	-10.8781
▁동영상에서	-10.8781
행사	-10.8782
▁독감	-10.8782
▁클라크	-10.8783
▁위축	-10.8783
▁치른	-10.8784
▁재배치	-10.8784
▁개막식	-10.8784
▁민간인들	-10.8785
▁연출	-10.8785
▁생기	-10.8787
▁상원에서	-10.8788
▁라울	-10.8789
▁시민권	-10.8791
▁모래	-10.8791
▁연방정부	-10.8791
편의	-10.8792
▁피랍된	-10.8792
▁써	-10.8794
▁콰	-10.8798
▁발행	-10.8798
▁하이	-10.8802
▁후보와	-10.8811
▁챔피언십	-10.8813
▁도디	-10.8813
▁근처에	-10.8813
▁언급하며	-10.8815
▁겪었다	-10.8816
▁주류	-10.8816
▁루니	-10.8817
▁화장	-10.8823
▁내정	-10.8823
▁리비	-10.8824
▁모아	-10.8825
률이	-10.8825
▁양성	-10.8828
▁포경선	-10.8828
▁독재자	-10.8834
윈	-10.8835
SA	-10.8835
▁장성	-10.8835
▁지지자들에게	-10.8835
▁그곳에서	-10.8837
▁변호사들	-10.8837
▁가족들에게	-10.8838
▁의원들이	-10.8841
르게	-10.8841
▁하비	-10.8844
슬리	-10.8852
▁부상자들	-10.8854
▁제치	-10.8858
04	-10.8861
▁걸려	-10.8863
▁소방	-10.8864
▁공정한	-10.8864
▁해소	-10.8866
▁샤리프는	-10.8866
▁악화되	-10.8868
▁결심	-10.8869
▁피하기	-10.8871
▁up	-10.8874
▁d	-10.8879
▁선원들	-10.8882
▁칭	-10.8886
▁되며	-10.889
▁눈물	-10.8895
▁예술가	-10.89
▁불가능하다	-10.8903
▁외국인들	-10.8904
ran	-10.8905
▁구호단체	-10.8906
▁밖	-10.8907
▁주에	-10.891
그러나	-10.8914
▁일어나는	-10.8917
▁않았	-10.8917
▁날이	-10.8925
▁이라크내	-10.8927
▁연구원은	-10.8927
시장에서	-10.893
▁재해	-10.893
▁트레	-10.8931
▁가고	-10.8937
▁확인하고	-10.894
41	-10.8941
▁170	-10.8943
▁명령했다	-10.8947
▁피랍	-10.8947
▁은행들	-10.8952
ard	-10.8955
께	-10.8955
자리	-10.897
▁명단에	-10.897
▁공격한	-10.8971
▁파월	-10.8974
▁선택했다	-10.8978
▁위협에	-10.8981
것이	-10.8983
▁반대하고	-10.8983
▁언론과	-10.8984
베리	-10.8987
▁테러범들	-10.8995
▁78	-10.9
▁확인된	-10.9003
▁됐	-10.9004
중이다	-10.9007
▁크기의	-10.9007
▁의제	-10.9008
▁경제의	-10.9013
▁난민들	-10.9015
▁조씨	-10.9016
▁축출	-10.9018
세트에서	-10.9021
▁최고위	-10.9021
▁어려	-10.9026
▁바위	-10.9027
▁회수	-10.903
가량	-10.903
▁시위자	-10.9033
ts	-10.9033
▁매력	-10.9038
▁파손됐다	-10.9041
▁선수들이	-10.9045
▁주소	-10.9046
▁금리를	-10.9047
▁대답했다	-10.9047
룬	-10.9049
▁쪽	-10.9057
▁벗	-10.9058
▁맡았	-10.9058
달간	-10.9063
▁판결에	-10.9069
▁간부	-10.9071
▁세속주의	-10.9072
▁뉴햄프셔	-10.9078
▁매케인이	-10.908
▁일시적	-10.9081
연대	-10.9083
▁그들에게	-10.9085
▁전쟁이	-10.9092
▁오클라호마	-10.9093
▁남학생	-10.9093
퀴	-10.9094
▁시카고에서	-10.9096
▁지불하	-10.9097
냥	-10.9097
▁압	-10.9099
▁성지	-10.91
▁애틀랜타	-10.9101
▁nuclear	-10.9101
▁기준금리	-10.9101
▁느껴	-10.9101
▁땅에	-10.9101
▁버냉키	-10.9101
▁브리트니	-10.9101
▁슬픔	-10.9101
▁억만장자	-10.9101
▁이브라힘	-10.9101
▁칸다하르	-10.9101
▁규칙	-10.9101
▁중남미	-10.9101
▁덴버	-10.9101
▁윈프리	-10.9101
▁돌아다니	-10.9101
▁히드로	-10.9101
▁요즘	-10.9102
▁시티그룹	-10.9102
2007.07	-10.9102
▁세인트	-10.9102
2007.08	-10.9102
▁동굴	-10.9102
▁호킹	-10.9102
▁부활	-10.9103
▁talks	-10.9103
▁대선주자	-10.9103
▁국무총리	-10.9103
▁요르단강	-10.9103
▁결합	-10.9104
▁다룬	-10.9104
▁설정	-10.9104
▁외환	-10.9105
▁서식하	-10.9105
▁이스라엘에	-10.9105
▁실무	-10.9106
▁역임	-10.9106
▁소총	-10.9106
▁마찰	-10.9106
▁실현	-10.9106
▁사용된	-10.9107
▁불안정	-10.9107
▁않으며	-10.9108
얼	-10.9108
▁구름	-10.9108
▁줄이기	-10.9108
▁모집	-10.9109
▁매출	-10.9109
▁입었으며	-10.911
성근	-10.911
▁소행성	-10.9112
▁던진	-10.9112
▁입원했다	-10.9113
▁한달	-10.9113
▁입력	-10.9113
▁발급	-10.9116
▁합의문	-10.9117
▁약탈	-10.9117
▁구호품	-10.9118
▁기념식	-10.9119
▁실린	-10.9119
▁출장	-10.9119
▁때마다	-10.9121
▁다가오	-10.9123
야드	-10.9125
▁스파이	-10.9126
▁직접적	-10.9126
▁첫날	-10.9129
▁자정	-10.9133
▁장기적	-10.9136
▁프랑스에서	-10.9138
연패	-10.9138
▁태우고	-10.9139
▁중심에	-10.9141
▁먼지	-10.9144
▁정부에서	-10.9147
▁선장	-10.9147
▁남쪽으로	-10.9147
▁취소했다	-10.9148
67	-10.9149
▁유명하다	-10.9151
▁웨인	-10.9153
▁입학	-10.9153
▁하거나	-10.9157
▁Co	-10.9158
일본	-10.916
▁꽃	-10.9161
▁명백한	-10.9162
▁포스트	-10.9164
▁선적	-10.9167
▁제외하고	-10.9167
▁반전	-10.9167
후보	-10.9168
▁연구에서	-10.9173
▁출신인	-10.9177
37	-10.9182
▁성명서	-10.919
▁당일	-10.92
▁강화할	-10.9205
▁휴일	-10.9208
뉴	-10.9217
ti	-10.9222
▁명성	-10.9222
▁칼라	-10.9226
▁탄도	-10.9233
안보	-10.9236
▁실업	-10.9237
▁심사	-10.9238
킹	-10.9239
um	-10.9243
▁위험성	-10.9243
곡	-10.9244
일에는	-10.9249
이라면	-10.9249
▁장착	-10.9252
▁괴한	-10.9254
▁참여했다	-10.9254
생산	-10.9255
▁일원	-10.9258
▁파크	-10.9259
▁방문에	-10.9268
질러	-10.9268
▁행동이	-10.9269
▁이들에게	-10.9274
분야	-10.9278
▁다수의	-10.9281
▁관광지	-10.9282
▁회사에	-10.929
▁전사	-10.9291
자료	-10.9297
▁남성과	-10.9298
▁담당자는	-10.93
소한	-10.93
▁대폭	-10.9304
PA	-10.9307
된다면	-10.9311
▁연구가	-10.9313
▁제이	-10.9314
▁71	-10.9315
▁모술	-10.9322
인치	-10.933
▁경제학자	-10.933
▁있었기	-10.9332
부분	-10.9336
▁차지한	-10.9339
▁비가	-10.934
혔	-10.934
▁연이	-10.9348
▁미래에	-10.9348
▁연대	-10.9349
ee	-10.9351
▁여객기는	-10.9351
▁변호	-10.9351
▁싸우	-10.9352
▁소비자들이	-10.9355
주전	-10.9357
▁참가했다	-10.9363
▁이민자들	-10.9367
▁고조되	-10.9373
▁포트	-10.9378
▁방콕	-10.9378
56	-10.9378
▁한다면	-10.9379
▁경찰청	-10.9388
▁파이	-10.9389
▁공무원들	-10.939
▁180	-10.9392
부의	-10.9394
▁반도	-10.9396
▁줄리	-10.9404
▁생존자들	-10.9407
리노	-10.9413
▁기술자	-10.9414
▁적극	-10.9417
▁재판이	-10.942
▁뉴저지	-10.9422
▁강행	-10.9422
스에서	-10.9423
▁네바다	-10.9423
▁음료	-10.9424
▁중심가	-10.9426
님	-10.9427
▁떨어지	-10.9427
효	-10.9428
▁득표	-10.9433
49	-10.9434
픽	-10.9434
▁Bush	-10.9434
▁글래스고	-10.9434
▁뉴캐슬	-10.9434
▁디트로이트	-10.9434
▁럼스펠드	-10.9434
▁알말리키	-10.9434
▁없애	-10.9434
▁일으켜	-10.9434
▁텔레비전	-10.9434
▁플루토늄	-10.9434
▁IBM	-10.9434
▁에르도간	-10.9434
▁침묵	-10.9434
▁라모스	-10.9434
▁바하마	-10.9434
▁new	-10.9435
▁윈도우	-10.9435
▁마사지	-10.9435
▁아라비아	-10.9435
▁밝혀냈다	-10.9435
▁크로커	-10.9435
▁출범	-10.9435
▁돌아올	-10.9436
▁바꿀	-10.9436
▁적응	-10.9436
하에	-10.9436
▁조짐	-10.9436
2007.12	-10.9437
▁하얀	-10.9437
▁불황	-10.9438
▁잡았다	-10.9439
▁현지경찰	-10.9439
▁외쳤다	-10.9441
▁위생	-10.9442
▁CD	-10.9442
2007.09	-10.9442
▁2011	-10.9442
▁교내	-10.9442
▁거둔	-10.9443
▁하원의장	-10.9444
▁지낸	-10.9444
▁노스	-10.9444
▁모았다	-10.9444
▁편안	-10.9446
▁개헌안	-10.9446
▁처분	-10.9446
▁여유	-10.9447
▁조치로	-10.9449
▁지구에	-10.9449
▁발표는	-10.945
▁역전	-10.945
▁밀어	-10.9452
▁재배	-10.9453
▁제패	-10.9453
▁종이	-10.9455
▁서브	-10.9455
9000	-10.9457
▁묘지	-10.9459
▁석방된	-10.946
▁휴식	-10.9462
▁해체	-10.9463
▁전대통령	-10.9463
▁입구	-10.9464
부가	-10.9464
▁군중들	-10.9466
▁소유주	-10.9467
▁골드	-10.9467
▁예정되어	-10.9468
▁소화	-10.9468
▁받아들이지	-10.9472
▁탈출했다	-10.9473
▁받아들였다	-10.9474
▁2008.12	-10.9474
▁미치지	-10.9475
▁부토는	-10.9477
▁케이시	-10.9477
▁해왔다	-10.9478
▁복지	-10.9479
▁실패한	-10.9481
39	-10.9482
▁BDA	-10.9483
▁모르겠다	-10.9484
▁거주지	-10.9489
▁스타디움에서	-10.9489
▁들어가는	-10.949
▁수사에	-10.949
▁산하	-10.949
▁조항	-10.9491
▁열기	-10.9491
▁페리	-10.9492
곳에서	-10.9493
▁탈레반측	-10.9494
▁꾸	-10.9495
해왔	-10.9496
▁바람이	-10.9496
▁부르는	-10.9499
하러	-10.95
▁In	-10.9502
IC	-10.9513
▁기리	-10.9513
36	-10.9513
▁것이기	-10.9515
▁기록하며	-10.9516
AP	-10.9517
▁작용	-10.9519
▁0.5	-10.952
▁방향으로	-10.9521
▁솔	-10.9522
▁데비	-10.9522
▁느끼고	-10.9522
▁월스트리트	-10.9523
▁워터	-10.9526
▁주최측은	-10.9526
▁가르	-10.953
▁청년	-10.9536
▁기적	-10.9537
▁not	-10.9542
▁AI	-10.9542
▁몽	-10.9542
▁에스	-10.9544
▁석	-10.9546
시티	-10.9547
업체들	-10.9549
▁투기	-10.9555
▁양자	-10.9559
▁포기하	-10.9564
▁주차	-10.9566
타운	-10.9568
바리	-10.9569
▁승자	-10.9576
▁평화상	-10.9579
▁전체가	-10.9587
핀	-10.9587
3000	-10.9592
▁만료	-10.9593
시즌	-10.9593
▁수만명	-10.9595
▁자라	-10.9595
베르	-10.96
▁상원의원과	-10.9601
▁대선에	-10.9601
사업	-10.9602
▁부인하고	-10.9604
▁인도네시아에서	-10.9606
▁복장	-10.9607
▁전쟁에서	-10.9611
per	-10.9611
▁금지하고	-10.9613
▁계속하고	-10.9614
▁방송에서	-10.9617
▁as	-10.9623
▁요청할	-10.9634
▁수요일에	-10.9635
▁총리로	-10.9647
▁대회에	-10.9658
▁물었다	-10.966
▁확보했다	-10.9662
권이	-10.9666
▁비만	-10.967
▁확인되	-10.9676
▁탈레반과	-10.9679
▁만났	-10.9682
▁빌리	-10.9683
▁자카르타	-10.9684
▁미라	-10.9687
▁재판에	-10.9687
▁구간	-10.9688
▁81	-10.9691
▁바닥	-10.9702
▁프랑스와	-10.9703
▁파파라치	-10.9704
▁미리	-10.9705
까지도	-10.9705
▁대통령으로	-10.9708
당의	-10.9709
▁지구에서	-10.9712
▁분야에	-10.9716
▁높아	-10.9724
▁상의	-10.9727
▁착	-10.9732
▁장악	-10.9732
▁돌입	-10.9732
카드	-10.9734
▁기울	-10.9738
▁조절	-10.9739
우드	-10.9743
ver	-10.9744
▁금연	-10.975
어져	-10.9751
▁쓰는	-10.9754
▁가자지구에서	-10.9754
▁언	-10.9756
▁남아있	-10.9759
▁탈북자	-10.976
▁안전에	-10.9761
퇴	-10.9761
▁의자	-10.9762
▁이슬람교	-10.9766
보드	-10.9767
▁중상	-10.9769
▁재무	-10.9769
사진	-10.977
▁표결	-10.977
▁성공을	-10.9771
▁무장대원들	-10.9772
▁덧붙	-10.9774
▁국회에	-10.9777
첨	-10.9777
겔	-10.9779
셨	-10.9779
▁같습니다	-10.9779
▁기습	-10.9779
▁듣지	-10.9779
▁베이루트	-10.9779
▁시애틀	-10.9779
▁원자바오	-10.9779
▁이르렀다	-10.9779
▁최우선	-10.9779
▁펭귄	-10.9779
▁황우석	-10.9779
▁캔자스	-10.9779
▁정해지지	-10.9779
▁북극곰	-10.9779
▁양키스	-10.9779
▁스튜디오	-10.9779
▁고등법원	-10.9779
▁모로코	-10.9779
▁덕분에	-10.978
▁멸종위기	-10.978
▁켈리	-10.978
(25)	-10.978
▁칭찬	-10.978
▁Roh	-10.978
▁AIG	-10.978
▁가죽	-10.9781
▁자발적	-10.9781
▁레이저	-10.9782
▁좌파	-10.9782
▁1987	-10.9782
▁집필	-10.9783
▁패리스	-10.9783
▁절감	-10.9783
▁밝혔으나	-10.9784
▁정밀	-10.9784
▁출국	-10.9784
▁아이돌	-10.9785
이기도	-10.9785
2006.12	-10.9785
▁타결	-10.9786
바라데이	-10.9786
▁매입	-10.9786
▁국방위원장	-10.9787
▁추산했다	-10.9788
▁추천	-10.9788
▁현행	-10.9789
▁추문	-10.9789
시경	-10.979
▁부결	-10.979
▁네바다주	-10.9791
▁유행	-10.9791
▁배급	-10.9792
68	-10.9792
▁개설	-10.9793
▁보증	-10.9794
▁예보	-10.9794
▁사이버	-10.9796
▁사법부	-10.9797
▁것들	-10.9797
▁상병	-10.9797
▁불교	-10.9797
▁부속	-10.9799
▁주주들	-10.9799
▁타이어	-10.9801
수사	-10.9801
▁제프리	-10.9802
▁헐	-10.9803
▁관점에서	-10.9803
▁다이애나비	-10.9805
▁천문학자들	-10.9808
▁참여하지	-10.9809
pp	-10.9811
▁적십자사	-10.9813
▁기권	-10.9816
▁여야	-10.9816
▁계속할	-10.9817
▁이득	-10.9817
▁폴슨	-10.9821
▁노동부	-10.9824
▁위원장이	-10.9824
▁나체	-10.9824
▁추락했다	-10.9828
▁카라	-10.9828
▁조선	-10.9833
제로	-10.9837
까요	-10.9838
▁투명	-10.9839
▁구단	-10.9839
▁증언했다	-10.9841
▁명시	-10.9843
▁여기서	-10.9844
▁테러단체	-10.9847
ial	-10.9849
▁결승전에서	-10.9851
▁죽이	-10.9853
▁부위	-10.9856
기위해	-10.9861
▁실려	-10.9863
▁센	-10.9863
▁비치	-10.9864
▁느낀다	-10.9865
▁지역이	-10.9866
죄	-10.9868
▁영화에서	-10.9871
▁전용	-10.9872
구역	-10.9875
▁교육부	-10.9879
▁당국과	-10.9882
▁중반	-10.9886
▁기한	-10.9888
▁밝히기	-10.989
▁형태로	-10.9891
▁집회에	-10.9894
▁선박이	-10.9896
▁사라지	-10.9896
▁닐	-10.9898
▁사회에	-10.99
▁이른	-10.9905
당했다	-10.9916
요원	-10.9916
▁분쟁이	-10.9917
be	-10.9919
리오	-10.9919
▁호주에서	-10.992
▁기각	-10.992
▁결정적인	-10.9921
▁단장	-10.9925
▁X	-10.9931
멜	-10.9937
▁장려	-10.9938
동맹	-10.9943
▁소방관	-10.9945
▁77	-10.9945
▁생산하는	-10.9946
▁결승전	-10.9946
▁죽었다	-10.9946
아프리카	-10.9948
▁특이	-10.9948
벤	-10.9948
PPP	-10.9948
▁농민	-10.995
▁지도자들과	-10.9951
디오	-10.9951
ca	-10.9953
▁험	-10.9954
오르	-10.9959
▁중계	-10.996
▁자랑	-10.9963
▁유지할	-10.9967
대책	-10.9967
▁아내와	-10.9972
타임	-10.9979
▁착용하	-10.9989
▁분석했다	-10.9989
나라	-10.9989
▁개최된	-10.9995
▁줄이는	-10.9996
▁2.5	-10.9996
머리	-11
▁어머니와	-11
▁평양에서	-11.0009
▁비난한	-11.001
▁할지	-11.0019
▁느끼	-11.0022
▁카르	-11.0022
▁열정	-11.0026
돼있다	-11.0035
벨트	-11.0035
마르	-11.0035
▁장소에서	-11.0037
▁약속한	-11.0043
▁리오	-11.0044
▁적자	-11.0046
▁이래로	-11.0057
(2	-11.0058
▁제작자	-11.0058
▁머리에	-11.006
시에서	-11.006
부시	-11.006
▁염려	-11.0063
▁칼리	-11.0064
▁회원들	-11.0076
통신은	-11.0083
주가	-11.0083
리를	-11.0087
유지	-11.0088
▁산악	-11.0089
▁동영상에	-11.0089
▁원하지	-11.009
장비	-11.0092
▁파일	-11.0095
▁자금이	-11.0096
▁인접	-11.01
▁아시아에서	-11.0113
부를	-11.0114
형을	-11.0117
세포	-11.0117
ip	-11.0124
▁피닉스	-11.0126
코프	-11.0128
▁용납	-11.0129
촌	-11.0131
럽	-11.0132
제품	-11.0134
삭	-11.0136
랙	-11.0136
▁un	-11.0136
▁again	-11.0136
▁국회의사당	-11.0136
▁매머드	-11.0136
▁베어스턴스	-11.0136
▁불렀다	-11.0136
▁상파울루	-11.0136
▁아칸소	-11.0136
▁알자와히리	-11.0136
▁애니메이션	-11.0136
▁엘리베이터	-11.0136
▁최고경영자	-11.0136
▁테러지원국	-11.0136
▁토크쇼	-11.0136
▁하이브리드	-11.0136
▁항생제	-11.0136
▁당나귀	-11.0136
▁마이스페이스	-11.0136
▁오징어	-11.0136
▁대주교	-11.0136
▁안락사	-11.0136
▁take	-11.0136
▁국가주석	-11.0136
▁그린피스	-11.0136
▁세비야	-11.0136
▁크레이그	-11.0136
▁중산층	-11.0136
도널드	-11.0137
▁효력	-11.0137
▁미망인	-11.0137
▁가져올	-11.0137
2006.02	-11.0137
▁혈액	-11.0137
▁국가인	-11.0137
▁pro	-11.0137
▁양육권	-11.0137
▁투자자	-11.0137
▁연휴	-11.0138
▁운반	-11.0138
▁농담	-11.0138
▁낭비	-11.0138
▁기획	-11.0138
▁동참	-11.0138
▁무덤	-11.0138
▁대피령	-11.0139
▁풍경	-11.0139
▁1988	-11.014
▁군사작전	-11.014
▁도핑	-11.014
▁뚫	-11.0141
▁근교	-11.0141
▁진료	-11.0141
▁돌아온	-11.0141
▁행방	-11.0142
▁종양	-11.0143
▁토론토	-11.0144
▁복권	-11.0144
▁장거리	-11.0145
▁인민	-11.0145
▁감량	-11.0145
▁반환	-11.0145
▁볼튼	-11.0147
▁피닉스호	-11.0148
▁뛰	-11.0148
▁나와즈	-11.0148
▁식수	-11.0151
▁실질적인	-11.0151
▁배포	-11.0152
▁스카이	-11.0155
▁미셀	-11.0155
▁호화	-11.0155
▁파문	-11.0155
▁당연	-11.0155
▁놓여	-11.0156
그는	-11.0156
▁구경	-11.0157
▁페르	-11.0159
▁포위	-11.016
▁지나치	-11.016
▁격리	-11.016
▁전설	-11.0161
▁부유	-11.0161
▁설치된	-11.0161
▁취급	-11.0161
▁확실하지	-11.0163
슬러	-11.0165
▁여아	-11.0167
▁여자아이	-11.0167
▁앞선	-11.0167
▁자행	-11.0168
▁유용	-11.0168
▁하산	-11.0171
▁서약	-11.0172
▁시위로	-11.0173
▁아이티	-11.0178
카르	-11.0179
▁시달리고	-11.0179
디는	-11.0184
▁1200	-11.0187
▁보내기	-11.0188
▁중령	-11.0189
▁슛	-11.0189
▁실어	-11.019
안토니오	-11.0192
▁목적이	-11.0194
▁약품	-11.0195
▁산소	-11.0195
▁면접	-11.0196
▁토대	-11.0196
▁비행기에	-11.0199
▁실력	-11.0206
▁유물	-11.0206
▁성분	-11.0209
▁통해서	-11.0209
▁너무나	-11.0215
ab	-11.0217
▁경찰에따르면	-11.0218
▁개인적으로	-11.0221
▁캔	-11.0224
시까지	-11.0231
▁장악하	-11.0233
▁서명했다	-11.0233
▁걸었다	-11.0233
▁선정됐다	-11.0235
▁소속의	-11.0236
▁광부들	-11.0236
▁이베이	-11.024
▁여사와	-11.024
학과	-11.0241
▁의장이	-11.0242
▁원주민	-11.0244
▁세관	-11.0245
▁마이	-11.0246
▁주말에	-11.0253
▁에이	-11.0255
▁프라	-11.0255
▁호위	-11.0256
▁갖기	-11.0257
▁SP	-11.0261
▁팔려	-11.0263
▁경찰서에	-11.0272
▁좋아한다	-11.0273
조건	-11.0276
▁돌리	-11.0277
▁크로	-11.0281
Z	-11.0284
▁변호인	-11.0285
천명	-11.0285
▁미만	-11.0288
되었는데	-11.0289
BO	-11.0289
▁입수한	-11.0296
ight	-11.0296
ma	-11.0296
▁제작사	-11.0299
▁초래	-11.0301
보고	-11.0301
▁번지	-11.0302
▁느끼는	-11.0302
▁아파	-11.0305
답	-11.0308
▁시청자들	-11.0308
▁결정이	-11.031
▁법적으로	-11.0313
봐	-11.0314
▁강화하고	-11.0316
사령관	-11.0318
빛	-11.0318
▁조국	-11.0322
났다	-11.0326
▁러시아와	-11.0332
▁가중	-11.0337
▁보낸다	-11.0339
▁85	-11.034
▁기아	-11.0345
▁새해	-11.0353
▁들어와	-11.0355
프라	-11.0357
MS	-11.0359
▁의견이	-11.0359
▁친척	-11.0368
▁인명	-11.0375
▁환영했다	-11.0377
쟁	-11.0382
▁아기들	-11.0386
▁떨어졌	-11.0386
▁오픈에서	-11.0387
▁안드레	-11.0391
▁금년	-11.0392
▁가족에게	-11.0394
▁크고	-11.0398
'(	-11.0404
▁연구원	-11.0406
▁덕	-11.0409
▁900	-11.0415
워드	-11.0416
▁아라	-11.0417
▁787	-11.042
42	-11.0422
선거	-11.0424
▁걸려있	-11.0425
▁AS	-11.0426
▁미소	-11.0428
▁인기가	-11.0428
▁움직임이	-11.043
▁내지	-11.0432
▁지원하기	-11.0434
▁노대통령은	-11.0434
율이	-11.0435
점에	-11.0438
▁불가피	-11.0439
대에서	-11.044
▁독재	-11.0446
▁활성화	-11.045
▁산책	-11.0454
코스	-11.0456
▁넣어	-11.0457
▁측이	-11.0459
Ma	-11.046
▁나타났	-11.0461
품을	-11.0466
to	-11.0468
▁카리	-11.0469
▁비극	-11.0472
▁2005.1	-11.0472
전문가	-11.0474
ER	-11.0478
▁총장	-11.0479
ell	-11.0488
혐의로	-11.0489
▁말에	-11.0495
쳤으며	-11.0498
럭	-11.0499
▁투표할	-11.0502
섭	-11.0502
▁알바니아	-11.0505
▁모터	-11.0506
▁Seoul	-11.0507
▁광우병	-11.0507
▁꺾고	-11.0507
▁로스앤젤레스	-11.0507
▁무너져	-11.0507
▁뮌헨	-11.0507
▁썼다	-11.0507
▁암스트롱	-11.0507
▁에스토니아	-11.0507
▁오케스트라	-11.0507
▁오키나와	-11.0507
▁우주정거장	-11.0507
넌	-11.0507
▁베탕쿠르	-11.0507
▁유죄판결	-11.0507
▁집무실	-11.0507
▁되돌아	-11.0507
▁몸무게	-11.0507
▁무너진	-11.0507
▁오렌지	-11.0507
▁대한민국	-11.0507
▁카지노	-11.0507
▁하리리	-11.0507
▁남아프리카공화국	-11.0507
▁침착	-11.0507
▁불쾌	-11.0507
▁브루스	-11.0507
qu	-11.0507
▁부양책	-11.0507
▁겁니다	-11.0507
▁속옷	-11.0507
▁착취	-11.0507
▁동유럽	-11.0507
8226	-11.0507
▁놀랄	-11.0507
▁스콧	-11.0507
▁여배우	-11.0508
▁갤런당	-11.0508
▁있었는지	-11.0508
▁몸값	-11.0508
▁공군기지	-11.0508
▁요새	-11.0509
▁쿠르드족	-11.0509
▁명칭	-11.0509
▁저택	-11.0509
▁남녀	-11.0509
▁유혈	-11.051
▁워너	-11.051
▁감추	-11.051
▁침수	-11.051
▁만찬	-11.0511
▁왔습니다	-11.0511
▁버튼	-11.0511
▁불평	-11.0512
▁세균	-11.0512
▁인정받	-11.0512
▁때문입니다	-11.0512
▁토양	-11.0512
▁라이브	-11.0512
▁마침	-11.0513
▁총알	-11.0513
▁풍선	-11.0513
▁언제든	-11.0514
▁유골	-11.0515
▁교토	-11.0515
▁절약	-11.0515
▁가결	-11.0516
▁유적지	-11.0517
여부	-11.0517
2006.10	-11.0518
받은	-11.0519
▁우연	-11.052
▁차림	-11.052
▁구단주	-11.0522
▁오프라	-11.0523
▁굿	-11.0524
▁등장	-11.0524
▁코피	-11.0525
▁줄이고	-11.0525
▁영원	-11.0526
▁교량	-11.0527
▁미국에서는	-11.0527
▁대피소	-11.0528
▁경영자	-11.0529
▁성경	-11.053
▁주장했지만	-11.053
▁산악지역	-11.053
▁조사하기	-11.0532
▁알았다	-11.0534
52	-11.0536
▁활기	-11.0539
▁협상단	-11.0542
▁해방	-11.0545
사이트	-11.0547
▁과시	-11.0547
▁진행됐다	-11.055
하려면	-11.0552
▁전시회	-11.0553
▁보호하고	-11.0553
▁줄여	-11.0555
▁제방	-11.0556
▁면적	-11.0558
▁흥미	-11.0559
▁원자력	-11.0561
▁녹화	-11.0561
▁Koreas	-11.0561
▁연예인	-11.0562
해준	-11.0562
▁발부	-11.0564
▁지연되	-11.0565
▁부상당	-11.0565
▁전례	-11.0566
▁성공회	-11.0568
▁모으	-11.0568
▁정당이	-11.0569
BA	-11.0572
▁내게	-11.0572
▁뉴욕에	-11.0572
▁공부	-11.0573
▁폭격기	-11.0576
▁해명	-11.0577
▁종교적	-11.0577
▁선고받	-11.0577
▁단서	-11.0578
▁부진	-11.058
▁원치	-11.0584
▁회견에서	-11.0588
▁제작된	-11.0591
▁출전한	-11.0591
자에게	-11.0592
▁반군과	-11.0598
▁라인	-11.0607
▁제일	-11.0609
▁쉬운	-11.0613
받고	-11.0613
지원	-11.0616
▁과정에	-11.0617
▁지니	-11.0617
▁휘	-11.062
일째	-11.0623
▁방문객들	-11.0624
▁임원	-11.0625
▁전범	-11.0625
험	-11.0626
▁바다로	-11.0633
▁나치	-11.0634
▁시사	-11.0634
▁시작되었다	-11.0634
▁과장	-11.0638
티스	-11.0638
▁사이트에	-11.0641
▁학위	-11.0646
▁Ro	-11.0647
▁납	-11.0647
▁취하지	-11.0648
▁금지하는	-11.0653
▁개발한	-11.0662
ast	-11.0669
▁당국자는	-11.0669
▁문자	-11.0673
▁제공하고	-11.0676
▁시일	-11.0677
▁전체에	-11.068
▁총격으로	-11.0681
▁차가	-11.0681
▁일으키는	-11.0689
얀	-11.0696
▁올리고	-11.07
[	-11.07
▁발생했	-11.0702
핵	-11.0703
▁관계자들과	-11.0703
힘	-11.0704
▁미치	-11.0707
▁저가	-11.0707
등급	-11.0709
레오	-11.0715
▁이후에	-11.0721
▁구하기	-11.0724
▁북부지역	-11.0736
▁있기를	-11.0736
법안	-11.0737
▁등급	-11.0751
받아	-11.0751
▁89	-11.0753
논	-11.0754
▁사용한다	-11.0755
▁임무는	-11.0755
▁감옥	-11.0766
▁관료	-11.077
▁동맹국들	-11.0772
▁피살	-11.0772
▁파손되	-11.0773
▁노력에	-11.078
▁언급한	-11.0781
번에	-11.0782
▁신도	-11.0784
역대	-11.0788
▁선출된	-11.0789
▁남편과	-11.0791
▁비교해	-11.0794
▁들리	-11.0797
▁가한	-11.0805
▁힐튼이	-11.0806
룸	-11.0813
이면	-11.0815
▁효율적	-11.0823
▁제공하기	-11.0833
▁내장	-11.0833
▁시위대와	-11.0835
▁만나기	-11.0845
▁재판은	-11.0847
▁행사에서	-11.0849
▁손님	-11.085
▁방법에	-11.0851
▁사육	-11.0852
▁필립	-11.0852
▁에는	-11.0852
▁sh	-11.0854
95	-11.0859
▁취소됐다	-11.086
▁에티오피아	-11.087
▁위스콘신	-11.0871
ah	-11.0872
▁납치범들	-11.0872
▁켄터키	-11.0874
▁스탠	-11.0878
ll	-11.0878
▁종합	-11.0879
▁구제금융	-11.088
되었지만	-11.0882
준다	-11.0882
▁파악하	-11.0885
롬	-11.0887
▁총선에	-11.0889
▁감바	-11.0891
▁AFP	-11.0891
▁troop	-11.0891
▁골든글로브	-11.0891
▁구호물품	-11.0891
▁끊임없	-11.0891
▁넘어섰다	-11.0891
▁마케팅	-11.0891
▁박테리아	-11.0891
▁왕복선	-11.0891
▁유니세프	-11.0891
▁이스탄불	-11.0891
▁재정경제부	-11.0891
▁촛불	-11.0891
▁탔다	-11.0891
▁티셔츠	-11.0891
▁피추시킨	-11.0891
▁흰색	-11.0891
닛	-11.0891
▁그루지아	-11.0891
▁브리티시	-11.0891
▁블룸버그	-11.0891
▁식민지	-11.0891
▁제니퍼	-11.0891
▁다운로드	-11.0891
▁되풀이	-11.0891
▁바쿠바	-11.0891
▁부작용	-11.0891
▁제라드	-11.0892
▁종신형	-11.0892
▁계곡	-11.0892
▁쇼핑몰	-11.0892
▁맥도날드	-11.0892
▁티켓	-11.0892
▁문제점	-11.0892
able	-11.0892
▁숨겨	-11.0893
▁전염병	-11.0893
▁가속화	-11.0893
▁도망	-11.0893
▁평결	-11.0894
▁Day	-11.0894
▁격추	-11.0894
▁삼림	-11.0895
▁개념	-11.0895
▁국영방송	-11.0895
▁폭등	-11.0896
▁머피	-11.0896
▁할아버지	-11.0896
▁밤새	-11.0897
▁예배	-11.0897
▁새겨	-11.0898
▁취약	-11.0901
▁후퇴	-11.0901
▁기름	-11.0902
▁탐사선	-11.0902
▁친환경	-11.0902
▁외출	-11.0902
▁평소	-11.0903
▁발매	-11.0903
▁배제하지	-11.0904
▁폭풍우	-11.0904
▁보좌관들	-11.0906
▁쏘	-11.0906
▁지속될	-11.0907
▁치를	-11.0907
▁분실	-11.0907
▁소란	-11.0908
▁짜	-11.0909
▁주민이	-11.0909
▁벌금형	-11.0909
▁드는	-11.0909
▁성행위	-11.091
▁했고	-11.0912
▁결장	-11.0913
▁정체	-11.0913
▁여파로	-11.0914
▁파키스탄에	-11.0914
▁구형	-11.0915
▁정상회의	-11.0915
단이	-11.0915
▁약혼	-11.0915
▁이룩	-11.0916
▁인계	-11.0916
▁알려주	-11.0918
▁연방준비제도이사회	-11.0918
▁동전	-11.0921
▁발견돼	-11.0921
▁공조	-11.0922
▁장기간	-11.0925
▁붐	-11.0925
▁비유	-11.0926
▁방치	-11.0927
▁예상보다	-11.0929
▁정오	-11.0931
▁조직원	-11.0933
▁순찰대	-11.0933
▁빵	-11.0933
▁나란	-11.0933
▁아니며	-11.0934
▁레이더	-11.0934
▁맹	-11.0934
▁버전	-11.0934
▁지문	-11.0935
죄로	-11.0937
▁채권	-11.0941
▁자리잡고	-11.0941
mo	-11.0943
▁배가	-11.0943
였지만	-11.0944
▁준장은	-11.0944
▁죽어	-11.0949
▁대우	-11.0949
▁특별히	-11.095
▁전염	-11.0951
▁추구	-11.0953
▁엑	-11.0956
▁하나이다	-11.0957
▁우주인	-11.0958
▁남기	-11.0963
▁지질	-11.0965
▁의원들에게	-11.0967
▁사실에	-11.0969
▁종식	-11.097
▁프레드	-11.0977
만여	-11.0977
▁OPEC	-11.0979
▁손자	-11.0981
ck	-11.0982
▁v	-11.0984
▁전하고	-11.0988
▁무엇이	-11.0991
ak	-11.0992
▁발달	-11.0995
▁발리	-11.0996
▁기자들과	-11.0998
▁수용할	-11.0999
▁통신사	-11.1001
▁다음과	-11.1008
▁미친	-11.1011
▁싶어한다	-11.1012
세에서	-11.1014
IS	-11.1014
▁정신과	-11.1019
▁가서	-11.102
▁군복	-11.1024
▁느꼈다	-11.1028
▁재선	-11.1028
▁내리기	-11.1029
▁목록	-11.1031
▁n	-11.1031
▁킨	-11.1033
77	-11.1035
▁가정에	-11.1036
▁떼	-11.1041
▁증인	-11.1044
▁확산되	-11.1045
▁러	-11.1049
▁기울이	-11.1051
▁폐쇄했다	-11.1058
▁공학	-11.1058
▁아시	-11.1069
버릴	-11.1073
▁부탁	-11.1074
안전	-11.1077
▁당국자	-11.1079
▁떨어지는	-11.1081
더는	-11.1082
▁기다려	-11.1083
▁내리고	-11.1084
▁상태였다	-11.1088
▁피해지역	-11.1091
▁공원에서	-11.1095
굴	-11.1097
▁듯한	-11.1098
▁폭로	-11.1099
켄	-11.1099
▁되었습니다	-11.1099
▁많지	-11.1099
스탄	-11.1099
▁강진	-11.11
환경	-11.1108
레이크	-11.1113
비가	-11.1114
주택	-11.1116
▁기소했다	-11.1116
▁지역이다	-11.1121
▁사용하기	-11.1124
노동	-11.1127
▁경제학자들	-11.1128
▁지목했다	-11.1128
▁광장에	-11.1129
▁증진	-11.1134
▁건물에서	-11.1134
선에	-11.1137
▁학생들과	-11.1137
▁줄기	-11.1141
여개	-11.1144
▁로드	-11.1152
세대	-11.1156
▁강사	-11.1156
▁미시간	-11.1161
▁결함	-11.1164
만명에	-11.1167
▁경위	-11.1168
▁부장관	-11.1168
▁아이들에게	-11.1176
▁범죄에	-11.1177
▁고수	-11.1178
마크	-11.1179
▁양상	-11.1179
▁납치됐다	-11.118
▁후송	-11.1182
▁업체들	-11.1183
아나	-11.1183
▁Ch	-11.1186
▁지도자로	-11.1188
나갈	-11.1191
무라	-11.1192
69	-11.1192
버트	-11.1194
▁조사단	-11.12
느냐	-11.12
▁뉴델리	-11.12
▁장관들	-11.1202
▁꺼	-11.1206
▁돈이	-11.1207
▁부근에	-11.1207
▁사무실에서	-11.1209
버린	-11.121
NA	-11.1212
렌스	-11.1224
▁열렸	-11.1225
우주	-11.1226
▁가자지구에	-11.1226
회의에서	-11.1229
▁포기했다	-11.1233
▁내고	-11.1234
▁났다	-11.1235
지도자	-11.1239
▁선언한	-11.1247
▁가려	-11.1247
기금	-11.125
스틴	-11.1252
▁나타난	-11.1254
▁국정원	-11.1258
▁후보들은	-11.1263
▁부리	-11.1266
▁부인과	-11.1267
▁통일	-11.1267
59	-11.1273
43	-11.1273
▁펜실베니아	-11.1275
▁확인해	-11.1276
▁하마스와	-11.1277
▁루이지애나	-11.1277
▁기간에	-11.1278
▁느낌	-11.1278
▁연합은	-11.1279
▁향했다	-11.1279
렘	-11.1284
줘	-11.1285
뒀	-11.1288
컴	-11.129
혜	-11.1291
▁첩보	-11.1291
▁벨몬트	-11.1291
7,000	-11.1291
▁가뭄	-11.1291
▁가즈프롬	-11.1291
▁구스마오	-11.1291
▁댈러스	-11.1291
▁뒷받침	-11.1291
▁떨어질	-11.1291
▁만장일치	-11.1291
▁매코맥	-11.1291
▁머리카락	-11.1291
▁모하마드	-11.1291
▁비즈니스	-11.1291
▁승용차	-11.1291
▁아웅산수지	-11.1291
▁이르기까지	-11.1291
▁캠벨	-11.1291
▁커뮤니티	-11.1291
▁케르비엘	-11.1291
▁클리블랜드	-11.1291
▁타협	-11.1291
▁흡수	-11.1291
▁그루지야	-11.1291
▁스탈린	-11.1291
▁실업수당	-11.1291
▁어두운	-11.1291
▁유조선	-11.1291
▁카리스마	-11.1291
▁트로피	-11.1291
▁예언자	-11.1291
▁셔츠	-11.1291
▁교과서	-11.1292
▁살모넬라균	-11.1292
▁퇴장	-11.1292
(32)	-11.1292
▁흐름	-11.1292
▁소탕작전	-11.1292
▁교착	-11.1292
▁침투	-11.1292
▁바꿔	-11.1292
▁its	-11.1292
ncy	-11.1292
▁타이완	-11.1292
였다며	-11.1292
▁유혹	-11.1292
▁공략	-11.1293
▁냉동	-11.1293
▁나아가	-11.1293
▁디스커버리호	-11.1293
▁대략	-11.1293
▁유효	-11.1293
▁녹색	-11.1294
▁평범	-11.1294
▁완공	-11.1294
▁뒤따	-11.1294
▁허블	-11.1294
▁사원에서	-11.1294
건물	-11.1294
하르	-11.1295
시켜야	-11.1295
▁해킹	-11.1295
▁아끼	-11.1296
▁꽤	-11.1296
▁반체제	-11.1296
▁are	-11.1296
▁받았으나	-11.1296
▁영감	-11.1297
▁분출	-11.1298
▁결의안에	-11.1299
▁참패	-11.13
▁회부	-11.13
▁상반기	-11.13
▁외교관계	-11.13
▁조종	-11.1301
▁식물	-11.1302
▁극단주의자들	-11.1302
▁창조	-11.1303
▁높아졌다	-11.1303
▁병역	-11.1303
▁대령	-11.1303
▁고속	-11.1304
▁받았지만	-11.1304
▁난동	-11.1305
▁비준	-11.1305
▁독점	-11.1306
▁크리스티나	-11.1306
▁참배	-11.1307
▁책정	-11.1307
American	-11.1308
▁국정	-11.1309
▁관광객들은	-11.131
▁신병	-11.131
▁아랍에미리트	-11.1311
▁크로아티아	-11.1311
▁조속	-11.1312
▁감면	-11.1312
▁우리베	-11.1313
▁가져다	-11.1313
▁알렌	-11.1315
▁감원	-11.1315
▁가기	-11.1316
▁예선전	-11.1317
▁터미널	-11.1319
▁않자	-11.1322
▁늘어났다	-11.1322
▁들었	-11.1324
▁박수	-11.1326
▁춤	-11.1326
▁확인하는	-11.1326
▁공개되지	-11.1329
▁리타	-11.1332
▁댄	-11.1332
▁확인한	-11.1334
▁주인이	-11.1334
▁기내	-11.1335
▁아이들과	-11.1339
▁하트	-11.1339
▁논의했다	-11.1339
▁차원에서	-11.1342
▁일반적인	-11.1343
▁전송	-11.1343
▁운하	-11.1345
▁대도시	-11.1347
▁국회의	-11.1347
▁아미	-11.1349
▁시계	-11.135
▁권위	-11.1351
▁채우	-11.1354
자들과	-11.1354
▁말했지만	-11.1355
▁취임한	-11.1355
▁장악한	-11.1355
▁매트	-11.1356
▁가져	-11.1356
▁부적절	-11.1357
▁일단	-11.1357
▁그라운드	-11.1359
▁CDC	-11.1361
▁주교	-11.1362
▁2,000	-11.1366
▁팬들에게	-11.1368
▁야후는	-11.1369
▁흐르	-11.1369
▁템	-11.1374
▁도시에	-11.1374
▁정치적으로	-11.1374
▁독일에서	-11.1376
▁제약	-11.1376
▁누르고	-11.1378
▁딜러	-11.1381
▁총회	-11.1382
▁적대	-11.1382
▁신문에	-11.1385
▁유지하기	-11.1388
였고	-11.139
▁불화	-11.1391
만여명	-11.1393
▁인정한	-11.1395
▁이어질	-11.1397
▁마을에	-11.1398
▁끈	-11.1399
▁시간에	-11.1399
▁j	-11.14
▁인적	-11.1402
32	-11.1402
공항	-11.1403
▁건수	-11.1409
▁백악관에	-11.141
▁구상	-11.1416
▁명에	-11.1417
▁정치범	-11.1418
▁단계에	-11.1418
▁헤이	-11.1424
▁프로그램이	-11.1424
▁생겼다	-11.1425
▁확실하다	-11.1426
▁개발에	-11.1427
▁지방의	-11.143
▁정보가	-11.1435
▁미군측	-11.144
▁나갔다	-11.1441
▁위에서	-11.1445
▁사진들	-11.145
▁군부대	-11.145
▁공세	-11.1453
램	-11.1454
국민	-11.1456
채가	-11.1457
▁요구에	-11.146
▁제품에	-11.1461
has	-11.1472
▁쇼에	-11.148
일만에	-11.1482
▁목요일에	-11.1482
ting	-11.1484
▁기자들이	-11.1485
▁무장괴한	-11.1485
▁조치에	-11.1487
▁코커스에서	-11.1487
▁사람과	-11.1489
▁Y	-11.1489
▁do	-11.1492
학년	-11.1493
▁목격한	-11.1497
▁350	-11.15
▁중점	-11.1501
▁혼란에	-11.1503
활	-11.1505
▁본국	-11.151
위안	-11.151
▁모욕	-11.1513
휴	-11.1514
솔	-11.1516
셰	-11.1516
▁장소로	-11.1516
콘	-11.1516
페이지	-11.1521
떨어진	-11.1521
▁신비	-11.1522
음악	-11.1523
▁당장	-11.1524
서비스	-11.1529
사실	-11.1534
보고서	-11.1534
여행	-11.1543
통제	-11.1548
▁하나를	-11.1549
▁110	-11.1551
▁부통령이	-11.1558
55	-11.156
▁이해할	-11.1569
▁부문에서	-11.1576
▁서울에	-11.1576
▁도시로	-11.1581
▁반대했다	-11.1582
구간	-11.1585
▁펼쳤	-11.1585
▁될지	-11.1588
▁기숙사	-11.1594
▁전인	-11.1595
▁속한	-11.1609
과정에서	-11.161
▁살아가	-11.161
▁영국으로	-11.1611
▁위치하	-11.1614
▁프레	-11.1616
▁남부의	-11.1623
▁링	-11.1624
▁신고했다	-11.1631
▁판결했다	-11.1632
▁브라	-11.1633
▁New	-11.1635
▁일고	-11.1647
▁청소년들	-11.1652
담당	-11.1655
one	-11.1667
▁박탈	-11.167
▁오리	-11.1671
▁기후변화	-11.1676
▁당원들	-11.1676
ood	-11.168
▁국회의원들	-11.1681
▁받아들여	-11.1684
our	-11.1684
▁일정이	-11.1684
▁아바	-11.1686
▁승객들이	-11.1693
▁확고	-11.1698
▁메릴랜드	-11.17
▁위기로	-11.1703
쁜	-11.1704
▁중동평화	-11.1704
덤	-11.1706
▁동성	-11.1707
▁치솟	-11.1707
즘	-11.1707
▁모니터	-11.1707
▁터뜨	-11.1708
▁곤돌라	-11.1708
▁냄새	-11.1708
▁놀랐다	-11.1708
▁맥코맥	-11.1708
▁산타클로스	-11.1708
▁색깔	-11.1708
▁스피처	-11.1708
▁싶은	-11.1708
▁웨스트버지니아	-11.1708
▁자메이카	-11.1708
▁좋게	-11.1708
▁초등학교	-11.1708
▁수하르토	-11.1708
▁싱가폴	-11.1708
▁열렬한	-11.1708
▁클루니	-11.1708
마누엘	-11.1708
믹	-11.1708
찔	-11.1708
▁뉴욕증시	-11.1708
▁이벤트	-11.1708
▁린제이	-11.1708
▁방사능	-11.1708
▁아스널	-11.1708
▁촉구하	-11.1708
▁LPGA	-11.1708
▁침범	-11.1709
▁동점골	-11.1709
▁무산	-11.1709
▁검출	-11.1709
▁소요사태	-11.1709
▁나중에	-11.1709
▁펠리	-11.1709
2007.05	-11.1709
▁압승	-11.1709
▁후계자	-11.171
▁호주오픈	-11.171
▁혼다	-11.171
▁블록	-11.171
▁아닐	-11.171
2006.05	-11.171
▁노리에가	-11.1711
▁냉전	-11.1711
▁삼았다	-11.1712
▁페리노	-11.1712
▁건립	-11.1712
▁연방법원	-11.1712
▁악재	-11.1712
▁제이미	-11.1713
▁주치의	-11.1713
▁올랐으며	-11.1714
▁다녀	-11.1714
▁도착했을	-11.1714
▁오스틴	-11.1714
▁인도에서	-11.1714
▁지수가	-11.1715
▁데니스	-11.1715
▁라이프	-11.1716
▁발목	-11.1716
▁바퀴	-11.1717
▁보조금	-11.1717
▁유예	-11.1718
▁지닌	-11.1718
▁석상	-11.172
ish	-11.172
▁섞	-11.1721
▁북동쪽	-11.1722
▁도왔다	-11.1722
▁참여하는	-11.1722
▁번역	-11.1722
▁악성	-11.1723
▁보았다	-11.1723
▁코너	-11.1725
▁해외에서	-11.1726
▁시술	-11.1726
▁정교	-11.1726
▁정통	-11.1727
▁남겼다	-11.1728
▁폐기물	-11.1729
▁가르치	-11.1729
▁스튜어트	-11.1729
▁로이	-11.173
▁장난	-11.1731
▁공방	-11.1732
디어	-11.1732
▁재발	-11.1734
▁국민이	-11.1735
▁일축했다	-11.1735
▁호흡기	-11.1735
▁출연해	-11.1736
▁정상적으로	-11.1736
▁자유당	-11.1736
▁소식통들	-11.1739
시기	-11.174
▁담겨있다	-11.1741
▁조사는	-11.1742
▁도와주	-11.1742
베키	-11.1743
▁앙	-11.1747
▁pre	-11.1747
▁때로는	-11.1748
▁참석하기	-11.1749
▁듀	-11.175
▁웹사이트는	-11.1751
▁1800	-11.1752
▁퀸	-11.1753
방법	-11.1755
▁여단	-11.1755
레나	-11.1756
투어	-11.1756
▁사이즈	-11.1757
▁아카데미상	-11.1757
어졌다	-11.176
년째	-11.1763
▁장착된	-11.1763
▁가하고	-11.1765
▁미쳤다	-11.1765
▁흘	-11.1766
▁러시아에서	-11.1767
듯이	-11.1767
▁갖는다	-11.1773
▁줄어들었다	-11.1774
▁파견된	-11.1777
▁친구들과	-11.1778
▁참사	-11.178
▁돌보	-11.1782
정부는	-11.1784
▁상위	-11.1787
▁낙	-11.1787
문제를	-11.1789
▁경기도	-11.1791
▁본드	-11.1794
▁2009.01	-11.1795
▁경찰청장	-11.1804
살인	-11.1808
▁수십억	-11.181
91	-11.181
▁앤더슨은	-11.1812
▁1.6	-11.1813
천억	-11.1814
▁세기	-11.1817
▁피신	-11.1819
▁양측의	-11.1819
▁그곳에	-11.182
86	-11.1823
하자는	-11.1824
▁숨기	-11.1827
▁과도	-11.183
▁참석해	-11.1834
▁도주	-11.1834
▁2006.01	-11.1836
보는	-11.1836
▁대리	-11.1837
▁묘	-11.1837
▁당의	-11.1838
▁오해	-11.184
만년	-11.1846
co	-11.1847
▁감옥에	-11.1847
▁집안	-11.1848
▁관리인	-11.185
에르	-11.1853
다리	-11.1853
▁74	-11.1855
▁환영한다	-11.1857
▁제트	-11.1858
지요	-11.186
▁사제	-11.1861
▁이탈	-11.1866
▁가담	-11.1871
▁주권	-11.1872
▁모스크바에서	-11.1872
▁지지도	-11.1878
▁발표하지	-11.1879
사단	-11.1879
▁합법적	-11.1887
▁과학적	-11.1889
▁재판소	-11.1891
▁철수시키	-11.1893
▁렌	-11.1894
▁표현했다	-11.1896
▁일상적	-11.1903
▁사업가	-11.1906
▁추정되	-11.1906
▁톤	-11.1907
▁올리는	-11.1911
▁보도한	-11.1911
▁주문했다	-11.1914
▁게이	-11.1916
08	-11.1922
▁83	-11.1926
▁서한	-11.1928
▁참모	-11.1928
▁아프가니스탄에	-11.1929
자회담에	-11.1931
▁수감됐다	-11.1934
▁퍼지	-11.1935
데요	-11.1938
응	-11.1942
▁소방관들	-11.1943
리슨	-11.1944
▁사업에	-11.1944
▁IT	-11.1946
웬	-11.1946
▁힘이	-11.1947
멘	-11.195
▁흔적	-11.1951
X	-11.1953
사람	-11.1956
파키스탄	-11.1956
▁요한	-11.1956
민족	-11.1957
세스	-11.1958
▁브로	-11.1962
▁위협했다	-11.1968
ie	-11.1969
라니	-11.197
살이	-11.1973
▁포함된다	-11.1973
▁미하	-11.1975
자들에	-11.1981
▁전달한	-11.1983
ian	-11.1986
▁점이	-11.1989
▁그날	-11.1994
▁유입	-11.1996
▁ma	-11.1997
▁관리자	-11.2008
▁관심사	-11.2008
▁방문객	-11.2013
▁보호할	-11.2017
▁실직	-11.2018
▁낙관적	-11.2022
▁페레	-11.2024
▁엘리	-11.2026
들러	-11.2028
제작	-11.2029
병력	-11.2031
▁시스템이	-11.2034
▁79	-11.2034
▁생각해	-11.2047
▁쌍	-11.2049
▁측면	-11.2053
▁가할	-11.2055
▁주당	-11.2055
▁전략적	-11.2059
▁공장에서	-11.206
▁후보에게	-11.2061
▁법정에	-11.2063
▁된다면	-11.2063
호는	-11.2068
스텐	-11.2073
320	-11.2075
▁누르	-11.2079
▁내로	-11.2086
▁초과	-11.209
▁예로	-11.2091
▁감시단	-11.2092
▁범죄자	-11.2094
▁한쪽	-11.2094
▁여인	-11.2097
▁국세청	-11.21
▁길에	-11.2106
▁차량은	-11.2108
달라	-11.2109
국으로	-11.2112
▁부부의	-11.2115
▁안되	-11.2119
▁요청한	-11.2124
▁보호하는	-11.2124
▁파업이	-11.2125
▁만족한다	-11.2131
▁제공한다	-11.2134
픈	-11.2134
54	-11.2135
▁플래	-11.2135
틸	-11.214
▁상승으로	-11.2141
▁일로	-11.2142
▁머무	-11.2142
렁	-11.2143
▁ETA	-11.2143
▁FTSE	-11.2143
▁SUV	-11.2143
▁같았다	-11.2143
▁갤럭시	-11.2143
▁내비쳤다	-11.2143
▁높였다	-11.2143
▁로페즈	-11.2143
▁마닐라	-11.2143
▁메사추세츠	-11.2143
▁사카쉬빌리	-11.2143
▁사형집행	-11.2143
▁상관없이	-11.2143
▁세계보건기구	-11.2143
▁세실리아	-11.2143
▁엉덩이	-11.2143
▁엔데버호	-11.2143
▁여동생	-11.2143
▁잃지	-11.2143
▁조선중앙통신	-11.2143
▁조코비치	-11.2143
▁카자흐스탄	-11.2143
▁캠퍼스	-11.2143
▁트라볼타	-11.2143
▁페널티킥	-11.2143
▁횟수	-11.2143
▁캥거루	-11.2143
▁횡단	-11.2143
▁1981	-11.2143
▁수족관	-11.2143
▁유수프	-11.2143
NEW	-11.2143
▁마라도나	-11.2143
▁비영리	-11.2143
▁유시프	-11.2143
▁셰이크	-11.2143
▁영부인	-11.2143
▁빈민가	-11.2143
▁자서전	-11.2143
▁앙겔	-11.2143
▁대지진	-11.2143
▁월마트	-11.2143
▁잔혹	-11.2143
2008.06	-11.2143
▁러셀	-11.2143
▁진흙	-11.2143
▁가자시티	-11.2143
▁수비수	-11.2143
2007.06	-11.2144
▁리버	-11.2144
▁범람	-11.2144
▁침팬지	-11.2144
▁힌두교	-11.2144
1953	-11.2144
▁편집자	-11.2144
▁돌아갔다	-11.2144
▁열쇠	-11.2144
▁메뉴	-11.2144
▁생겨	-11.2145
▁면허	-11.2145
▁워커	-11.2145
▁war	-11.2145
베르토	-11.2145
▁조셉	-11.2145
▁두뇌	-11.2145
▁다짐	-11.2146
▁사마라	-11.2146
▁밀림	-11.2146
▁영예	-11.2146
▁선데이	-11.2146
▁면역	-11.2147
▁활력	-11.2147
▁제재조치	-11.2147
▁뜨거	-11.2147
▁몰래	-11.2147
▁규명	-11.2147
▁불안감	-11.2148
▁몸집	-11.2148
▁재벌	-11.2148
▁결별	-11.2148
▁종파	-11.2148
▁비평	-11.2149
▁모르지만	-11.215
▁맹세	-11.215
▁피셔	-11.215
▁놓았다	-11.215
▁화석	-11.215
2007.10	-11.215
▁남았다	-11.2151
▁메달	-11.2151
▁타입	-11.2151
▁연기했다	-11.2152
▁경제와	-11.2152
▁히트	-11.2152
▁대기업	-11.2152
▁일방적	-11.2153
▁신의	-11.2153
▁보석금	-11.2153
▁따돌리	-11.2153
▁USA	-11.2154
▁pa	-11.2154
▁시사회	-11.2155
▁온천	-11.2157
▁사우스	-11.2158
2008.09	-11.2158
▁북서쪽	-11.2159
▁맡게	-11.216
▁태어났다	-11.216
▁이례적	-11.2161
있던	-11.2161
▁우방	-11.2161
▁탄약	-11.2162
▁십대	-11.2162
▁상원의원에	-11.2162
▁야간	-11.2163
▁소감	-11.2163
▁유포	-11.2163
▁악화될	-11.2165
▁유타	-11.2165
▁필수	-11.2165
▁웹사이트에서	-11.2166
▁것이냐	-11.2166
▁베어	-11.2166
피크	-11.2167
▁호우	-11.2167
▁버진	-11.2169
▁임명된	-11.2169
하겠지만	-11.2169
▁요트	-11.217
▁안심	-11.217
▁남미	-11.217
라기	-11.2171
▁환수	-11.2171
▁노동력	-11.2171
▁밝히며	-11.2171
▁치르는	-11.2172
▁도쿄에서	-11.2172
▁파고	-11.2173
▁더이상	-11.2173
▁강연	-11.2174
▁제트기	-11.2176
▁작용할	-11.2182
천억원	-11.2182
▁상정	-11.2183
▁중국인들	-11.2183
▁자회사	-11.2185
법에따라	-11.2187
▁조카	-11.2187
ros	-11.2189
▁광대	-11.2189
▁우파	-11.2191
▁대학살	-11.2191
▁번식	-11.2192
▁중국인	-11.2193
▁후임자	-11.2194
군과	-11.2195
AT	-11.2197
▁통로	-11.2198
▁86	-11.2198
▁의뢰인	-11.2199
▁쉐	-11.2199
▁어선	-11.2201
▁일반인들	-11.2204
▁자선	-11.2204
red	-11.2205
▁발생하기	-11.2206
▁반미	-11.2214
▁93	-11.2215
▁엠	-11.2216
차이	-11.2216
▁이끌었다	-11.2217
해진다	-11.2218
▁인도주의적	-11.2218
▁심정	-11.2218
▁선거는	-11.2224
▁정비	-11.2224
▁끄	-11.2225
▁입원한	-11.2227
▁실종됐다고	-11.2235
▁부상했으며	-11.2235
05	-11.2238
▁정한	-11.2238
원으로	-11.2239
▁관중	-11.2242
▁지구로	-11.2243
▁칼로	-11.2245
▁퇴원	-11.2248
▁페이스	-11.2253
▁중에서	-11.2255
것을	-11.2257
▁경제학	-11.2258
▁무혐의	-11.226
▁다음으로	-11.226
out	-11.2261
▁흉기	-11.227
▁밝혀내	-11.2273
▁개혁안	-11.2276
▁마주	-11.2277
시간이	-11.2278
▁라마	-11.2279
▁전제	-11.2281
▁이겨	-11.2281
아이	-11.2282
▁관료들	-11.2287
득	-11.2288
▁지표	-11.229
96	-11.2292
마른	-11.2293
89	-11.2294
▁부수	-11.2298
▁것이지만	-11.2298
▁승무원들은	-11.2302
▁런던에	-11.2307
▁큐	-11.2311
▁만들었	-11.2313
▁동물을	-11.2313
▁공격수	-11.2313
▁맡기	-11.2315
있거나	-11.2324
데르	-11.2324
▁시에	-11.2325
▁물리	-11.2328
▁하원에서	-11.2332
▁생성	-11.2338
ud	-11.2339
러운	-11.2339
▁무기한	-11.234
▁일부에서는	-11.234
▁했을	-11.2342
▁알리기	-11.2342
▁작성한	-11.235
▁안나	-11.2351
버거	-11.2355
▁브레	-11.2357
▁[	-11.2364
일정	-11.2366
▁99	-11.2366
▁임신한	-11.2369
▁쳐	-11.2369
▁호스	-11.2378
▁기술이	-11.2379
▁최대한	-11.2379
▁공주	-11.2382
▁계획한	-11.2385
▁차에	-11.2385
자회담에서	-11.2386
▁정권은	-11.2388
▁결의	-11.2391
납	-11.2394
마이어	-11.2398
▁고려해	-11.2401
탑	-11.2406
▁승무원들	-11.2406
FRB	-11.2408
돈	-11.241
앞	-11.241
금융	-11.2411
▁고려할	-11.2415
회에서	-11.2415
▁모의	-11.2422
▁민주당과	-11.2423
▁주가가	-11.2425
▁검토하	-11.2428
▁판매되	-11.2431
▁갇혀	-11.2435
▁cr	-11.2435
조정	-11.2435
체계	-11.2437
air	-11.2439
트레	-11.2442
▁차관보	-11.2444
sion	-11.2445
▁8000	-11.2445
▁근무하	-11.2447
▁미국내	-11.2452
하였으며	-11.2452
▁딘	-11.2452
▁하도록	-11.2453
수준	-11.2454
▁게임에서	-11.2455
▁공개할	-11.246
▁케이	-11.2467
▁들어갔	-11.2467
전략	-11.2468
▁강화했다	-11.247
위기	-11.2474
ney	-11.2476
▁끝나는	-11.2477
▁여성에게	-11.2479
▁인도와	-11.2487
▁작전에	-11.249
▁북한에서	-11.2492
▁구조대원	-11.2496
▁끝내	-11.2497
▁납치했다	-11.2499
▁에디	-11.2501
▁나가는	-11.2505
▁여러분들	-11.2506
▁양곤	-11.2513
▁가사	-11.2513
▁말하지	-11.2513
▁릭	-11.2521
▁영광	-11.2522
가족	-11.2523
Q	-11.2525
▁운동가	-11.2528
▁통근	-11.2534
34	-11.2542
▁지어	-11.2544
▁여객기에	-11.2545
▁혈	-11.2545
▁합의는	-11.2553
▁만든다	-11.2555
▁몬	-11.2557
▁참가자	-11.2558
어서	-11.256
▁세이	-11.2561
▁단기	-11.2563
▁시설에	-11.2565
▁모스	-11.257
ta	-11.2572
▁가난	-11.2577
▁단일	-11.2582
글리	-11.2582
▁개헌	-11.2586
등을	-11.2586
이었고	-11.2586
▁주식시장이	-11.2587
▁업	-11.2587
직에서	-11.2589
▁코스피	-11.2589
▁세탁	-11.2593
푸르	-11.2593
칙	-11.2595
▁92	-11.2596
▁열린다	-11.2596
▁곳곳	-11.2597
▁내셔널	-11.2597
눌	-11.2597
▁혐오	-11.2597
▁military	-11.2597
▁국제사면위원회	-11.2597
▁그렇다면	-11.2597
▁라왈핀디	-11.2597
▁리얼리티	-11.2597
▁마호메트	-11.2597
▁부딪혀	-11.2597
▁악영향	-11.2597
▁얀코비치	-11.2597
▁이뤄져	-11.2597
▁인플루엔자	-11.2597
▁집행유예	-11.2597
▁짝짓기	-11.2597
▁카라카스	-11.2597
▁콘크리트	-11.2597
▁크누트	-11.2597
▁토마토	-11.2597
▁해리왕자	-11.2597
긋	-11.2597
▁200806.1	-11.2597
▁김계관	-11.2597
▁친선경기	-11.2597
▁휴양지	-11.2597
▁무너졌다	-11.2597
▁콜레라	-11.2597
▁깃발	-11.2597
▁election	-11.2597
▁힉스	-11.2597
▁닥터	-11.2597
▁브로드웨이	-11.2598
▁뒤덮	-11.2598
▁아지즈	-11.2598
▁화염	-11.2598
▁퍼트레이어스	-11.2598
▁월드시리즈	-11.2598
▁기번스	-11.2598
▁강아지	-11.2598
▁취득	-11.2598
▁수하물	-11.2598
▁페이스북	-11.2598
▁결렬	-11.2598
▁푸켓	-11.2598
2007.03	-11.2598
▁꾸준	-11.2598
▁둘째	-11.2598
▁호킨스	-11.2598
▁노왁	-11.2598
▁구조조정	-11.2599
▁환경보호	-11.2599
▁삼엄	-11.2599
▁피아노	-11.2599
▁지뢰	-11.2599
▁간첩	-11.2599
▁비싸	-11.2599
▁동맹관계	-11.2599
AM	-11.26
▁설교	-11.26
리서치	-11.26
▁표적이	-11.26
▁울머	-11.26
▁평화협상	-11.26
▁간섭	-11.26
▁아바타	-11.2601
▁평생	-11.2601
▁응원	-11.2601
▁이른바	-11.2601
▁결백	-11.2601
▁광경	-11.2602
▁글렌	-11.2602
▁국가안보	-11.2602
세에	-11.2602
▁팜	-11.2602
▁교황청	-11.2603
▁태양계	-11.2603
▁by	-11.2603
▁정보기관	-11.2604
▁페퍼	-11.2604
▁관행	-11.2604
▁방북	-11.2604
▁추출	-11.2605
▁과실	-11.2606
▁프로디	-11.2607
▁가축	-11.2607
▁녹아	-11.2607
▁방위군	-11.2607
▁고백	-11.2608
▁동행	-11.2608
▁Sp	-11.2609
▁소유권	-11.261
▁설문	-11.261
▁닭	-11.2611
▁그레이	-11.2611
▁재생	-11.2611
▁참전	-11.2611
▁격분	-11.2612
▁많았다	-11.2613
▁공통	-11.2613
▁생각합니다	-11.2614
▁보류	-11.2615
▁조업	-11.2615
▁제프	-11.2615
▁반격	-11.2615
▁부른	-11.2616
▁생선	-11.2617
▁복수	-11.2617
▁나가고	-11.2617
▁건조	-11.2618
만톤	-11.262
▁뉴욕타임스	-11.262
▁상실	-11.2621
▁원장은	-11.2621
▁저지르	-11.2621
▁스토	-11.2622
▁야당의	-11.2623
▁올릴	-11.2623
▁탈세	-11.2623
▁기초	-11.2623
▁본즈	-11.2623
▁뒤집	-11.2625
▁실내	-11.2625
▁양호	-11.2627
몬드	-11.2628
▁외모	-11.263
▁일기로	-11.263
▁허용하는	-11.263
▁필리스	-11.2632
▁주립	-11.2632
▁Mo	-11.2634
▁가즈니주	-11.2634
▁오락	-11.2634
▁리더	-11.2635
▁획득했다	-11.2636
▁교통부	-11.2637
▁댐	-11.2638
▁피터슨	-11.2638
▁개조	-11.264
of	-11.264
▁시작되	-11.2642
▁별로	-11.2645
▁단식	-11.2645
▁무시하고	-11.2645
▁크라우	-11.2645
▁검찰에	-11.2645
▁NFL	-11.2647
▁파괴됐다	-11.2648
▁의사당	-11.2649
▁차고	-11.2649
▁교회에서	-11.2651
▁아카	-11.2653
▁유아	-11.2655
▁미술	-11.2655
▁반대한다	-11.2656
▁흔들리	-11.2658
▁정책이	-11.2658
▁제공해	-11.2658
▁후임으로	-11.2659
▁연방수사국	-11.2665
▁돌입했다	-11.2666
▁환경에	-11.2667
▁허리	-11.2671
▁자치구	-11.2671
▁요구해	-11.2673
▁살해됐다	-11.2675
▁보였	-11.2676
▁대처하기	-11.2676
▁사무	-11.2679
▁230	-11.2679
다소	-11.2681
▁과제	-11.2682
▁전선	-11.2682
▁지냈	-11.2689
▁석방했다	-11.2691
▁말로	-11.2694
있으며	-11.2701
▁익	-11.2702
▁들어있는	-11.2706
▁캐리	-11.2706
▁용인	-11.2706
▁영국에	-11.2713
ach	-11.2716
져야	-11.2718
▁오지	-11.2718
▁기어	-11.2718
해져	-11.2722
▁미수	-11.2722
▁이씨	-11.2724
▁사망했고	-11.2724
▁추진하고	-11.2725
▁어려워	-11.2727
▁식으로	-11.273
▁이라크전에	-11.2733
▁활동이	-11.2744
▁답변했다	-11.2746
베라	-11.2748
▁잡혀있	-11.2748
▁사회주의	-11.275
났	-11.2751
▁기록적인	-11.2755
▁전설적	-11.2756
▁괜찮	-11.2759
▁톱	-11.2765
▁예비선거	-11.2765
▁바스라에서	-11.2769
▁중유	-11.2769
▁가이	-11.2772
리나	-11.2772
▁로한이	-11.2774
▁고리	-11.2777
리어	-11.2781
▁사람들에	-11.2781
▁sta	-11.2782
▁안개	-11.2803
▁시작해	-11.2805
▁여진이	-11.281
▁클레	-11.2811
롭게	-11.2813
▁헌신	-11.2825
▁발사했다	-11.2831
▁통과한	-11.2836
▁루스	-11.2838
▁이목	-11.284
▁아들은	-11.2842
▁2008.11	-11.2845
▁합의안	-11.2847
▁거래가	-11.2847
파인	-11.2848
▁판사들	-11.2855
혀있	-11.2857
ty	-11.286
시키는데	-11.2862
▁내주	-11.2864
편이	-11.2865
▁든다	-11.2869
▁국무	-11.2869
▁사망했	-11.2872
▁클럽에서	-11.2872
위권	-11.2874
▁동원해	-11.2876
UN	-11.2877
짐	-11.2878
2006.08	-11.288
이슬람	-11.2881
떼	-11.2882
묘	-11.2882
▁하버드	-11.2885
▁위반한	-11.2885
FBI	-11.2886
der	-11.2887
민주당	-11.2888
프랑스	-11.2893
▁줄었다	-11.2901
▁도로에	-11.2902
증권	-11.2905
▁예산을	-11.2906
비오	-11.2909
정치	-11.291
▁면에서	-11.2912
공장	-11.2913
▁진행할	-11.2915
▁잃었	-11.2916
배우	-11.2918
▁이란에서	-11.2922
범죄	-11.2925
트릭	-11.2926
▁미사	-11.2927
▁이어진	-11.2929
▁그때	-11.2932
▁감행했다	-11.2933
▁공산	-11.2934
▁go	-11.2936
▁열려	-11.2941
▁벽에	-11.2943
ite	-11.2945
▁승리하는	-11.295
▁주장이	-11.2952
▁마일	-11.2954
포트	-11.2954
▁고고학자들	-11.2957
▁복용한	-11.2959
▁주최측	-11.2959
조약	-11.2962
▁나비	-11.2964
▁공항으로	-11.2966
▁후보자들	-11.2968
▁일본인들	-11.2972
하드	-11.2973
▁각료	-11.2974
▁앉아있	-11.2974
▁타운	-11.2977
▁치고	-11.298
▁개최되	-11.299
처리	-11.299
▁들어온	-11.299
▁떠났	-11.299
▁균	-11.2992
▁국왕이	-11.2993
혁명	-11.2995
▁있었을	-11.2995
베스	-11.2995
▁Me	-11.2998
▁남자들	-11.3003
▁장례식에	-11.3006
건이	-11.3007
▁구입한	-11.3007
▁막고	-11.301
▁달라이라마는	-11.301
▁이성	-11.3015
▁논의하고	-11.3016
▁연기됐다	-11.3016
르트	-11.3019
▁격렬	-11.3019
▁받았고	-11.3026
▁중태라	-11.3032
▁우주로	-11.3037
▁놀이	-11.304
▁연령	-11.3043
▁바탕	-11.305
▁폭발했다	-11.306
ph	-11.306
▁도착해	-11.3063
▁매사추세츠	-11.3063
▁시도했다	-11.3064
▁용의	-11.3065
쾌	-11.307
▁콩	-11.307
끔	-11.3071
▁되어야	-11.3072
팩	-11.3073
▁House	-11.3074
▁Show	-11.3074
▁YORK	-11.3074
▁가톨릭	-11.3074
▁국가보안법	-11.3074
▁농작물	-11.3074
▁높았다	-11.3074
▁단백질	-11.3074
▁돕고	-11.3074
▁마흐무드	-11.3074
▁몬타나	-11.3074
▁몰디브	-11.3074
▁무책임	-11.3074
▁미드필더	-11.3074
▁슈워제네거	-11.3074
▁습관	-11.3074
▁없기	-11.3074
▁의료보험	-11.3074
▁저작권	-11.3074
▁지구온난화	-11.3074
▁추수감사절	-11.3074
▁코네티컷	-11.3074
▁타블로이드	-11.3074
▁탈라바니	-11.3074
▁페르난데스	-11.3074
▁합참의장	-11.3074
늄	-11.3074
야스쿠니	-11.3074
▁무중력	-11.3074
▁부정부패	-11.3074
▁전화통화	-11.3074
▁제네바	-11.3074
▁애쓰고	-11.3074
▁ATT	-11.3074
▁저녁식사	-11.3074
▁테이블	-11.3074
▁검찰총장	-11.3074
▁빠질	-11.3074
▁혼합	-11.3074
▁도메인	-11.3074
▁동남아시아	-11.3074
▁클레이코트	-11.3074
▁엄중	-11.3074
▁지중해	-11.3074
▁라시드	-11.3074
▁정부청사	-11.3074
▁졸릭	-11.3074
▁대통합민주신당	-11.3074
▁억압	-11.3074
▁김선일	-11.3074
▁중서부	-11.3074
(29)	-11.3074
▁대중교통	-11.3074
▁검열	-11.3074
▁자살폭탄	-11.3074
▁납북	-11.3074
▁get	-11.3075
▁조사했다	-11.3075
▁풀려	-11.3075
▁태양열	-11.3075
▁면밀	-11.3075
▁그린랜드	-11.3075
▁비공개	-11.3076
▁연합뉴스	-11.3076
2006.07	-11.3076
▁부회장	-11.3076
▁미술관	-11.3077
▁세레나	-11.3077
▁라틴	-11.3077
▁물러난	-11.3077
▁계층	-11.3078
▁기둥	-11.3078
▁연구조사	-11.3079
▁피델	-11.3079
▁LG	-11.3079
▁경제성장률	-11.3079
▁당분간	-11.308
▁극심	-11.3081
▁발사한	-11.3082
▁번영	-11.3082
▁심장병	-11.3082
▁기념품	-11.3082
▁숨지게	-11.3083
▁지나친	-11.3083
▁구타	-11.3083
▁변동	-11.3084
▁터진	-11.3085
▁장관급	-11.3086
▁동요	-11.3086
▁휩싸	-11.3086
▁책임감	-11.3087
▁지난밤	-11.3087
▁DC	-11.3088
하느	-11.3089
▁관계자에따르면	-11.309
▁문화적	-11.309
이라도	-11.3091
▁뉴저지주	-11.3092
▁중단하라	-11.3093
▁선동	-11.3093
▁들어보	-11.3095
▁사격	-11.3095
▁보상금	-11.3095
▁가두	-11.3095
▁시범	-11.3096
▁대승	-11.3096
▁걸프	-11.3096
▁부상당했다	-11.3097
▁냉	-11.3097
▁여정	-11.3098
▁임박	-11.3099
▁전반적으로	-11.3102
곳에	-11.3104
▁조각상	-11.3105
▁국민당	-11.3109
▁고정	-11.311
▁샤프	-11.311
▁다스	-11.3111
▁인파	-11.3111
▁초래할	-11.3113
▁고마	-11.3114
▁750	-11.3115
대상	-11.3124
▁억류된	-11.3125
적이며	-11.3126
▁외계인	-11.3127
2008.02	-11.3127
▁보건당국	-11.3127
▁포착	-11.3129
▁질서	-11.3131
잡이	-11.3131
▁우드	-11.3133
▁지속된	-11.3133
▁대조	-11.3133
▁선박에	-11.3135
▁간호사	-11.3139
▁제안에	-11.3139
▁지키기	-11.314
▁서쪽으로	-11.3141
▁고전	-11.3143
▁들어서	-11.3144
▁비극적	-11.3146
▁안건	-11.3153
▁판명	-11.3154
▁dis	-11.3154
▁구분	-11.3158
▁불가피하다	-11.3162
▁전파	-11.3163
센터에서	-11.3166
▁수성	-11.3167
▁결과에따르면	-11.317
▁아크	-11.3171
▁지미	-11.3171
▁연관된	-11.3171
▁선보였	-11.3174
▁101	-11.3175
33	-11.318
▁무서	-11.3189
▁마련했다	-11.3194
▁감행한	-11.3202
line	-11.3202
▁군의	-11.3204
▁선택한	-11.3205
▁작전이	-11.3206
▁참가하는	-11.3212
io	-11.3212
강에	-11.3215
▁차지할	-11.3216
▁같다며	-11.3218
▁결정될	-11.3219
▁일상	-11.322
려면	-11.3221
▁이견	-11.3228
자유	-11.323
▁경상	-11.3235
▁관해서	-11.3239
▁여자들	-11.3239
▁반군에	-11.3241
▁대사가	-11.3242
▁보여주기	-11.3246
▁까	-11.3248
▁수반과	-11.3249
▁중국정부	-11.3251
▁감자	-11.3252
▁맡아	-11.3252
었기	-11.3253
▁제안한	-11.3253
지오	-11.3258
▁도달했다	-11.326
▁불과했다	-11.326
▁기념일	-11.3266
▁펼치고	-11.3271
▁탑	-11.3276
▁어린이들이	-11.3279
▁플	-11.3283
마저	-11.3284
이치로	-11.3285
▁달에	-11.3289
▁거물	-11.3292
▁소행	-11.3294
▁뒤지	-11.3299
니까	-11.3301
▁매케인과	-11.3302
▁발견되	-11.3303
(5	-11.3303
▁의혹에	-11.3304
▁수의사	-11.3305
▁임명했다	-11.3306
▁해변에서	-11.3306
▁국경지역에	-11.3308
▁한국정부	-11.331
▁동북아	-11.3314
▁난자	-11.3314
▁폐쇄하고	-11.3315
▁진도	-11.3315
▁국가들과	-11.3324
▁주지사와	-11.3325
▁거라고	-11.3327
▁숨졌	-11.3337
▁괴한들	-11.3339
▁압도	-11.3339
▁가격에	-11.3342
▁유지하는	-11.3343
▁핀	-11.3346
▁법무	-11.3346
▁지점에	-11.3347
▁미얀마에	-11.3349
박한	-11.3349
▁시상식에서	-11.335
▁압수했다	-11.3355
▁지르	-11.3355
과학	-11.3356
▁고위관리는	-11.3357
▁결승	-11.3357
▁목소리로	-11.3358
▁일할	-11.336
▁세번째	-11.3362
줘야	-11.3366
▁명으로	-11.3378
잉	-11.3378
▁심각하다	-11.3378
▁경사	-11.338
▁생활에	-11.3381
딴	-11.3382
큐	-11.3383
WHO	-11.3384
훈련	-11.3385
오바마	-11.3387
▁소방대원	-11.3388
▁이혼했다	-11.3388
▁닉	-11.3391
▁정말로	-11.3394
▁텐	-11.3395
▁방문이	-11.3397
▁클리	-11.3399
메르	-11.3403
▁토로	-11.3403
▁학자들	-11.3403
▁움직임에	-11.3405
▁유니	-11.3407
어요	-11.341
▁모였다	-11.3411
속에	-11.3419
더미	-11.3422
▁우리들	-11.3424
됐기	-11.3428
▁블로그	-11.3428
▁갑작스	-11.343
카트	-11.344
층에	-11.344
▁일정에	-11.3441
▁마련하기	-11.3442
00	-11.3443
(3	-11.3453
▁수퍼대의원	-11.3458
▁노르	-11.3459
▁격돌한	-11.3462
▁카라치	-11.3465
▁시장과	-11.3467
워진	-11.3469
▁To	-11.3469
▁않았을	-11.3471
▁계속됐다	-11.3475
▁호전	-11.348
▁6000	-11.3486
층에서	-11.3487
▁교회에	-11.3488
▁감염자	-11.3488
▁나이로	-11.349
▁요인이	-11.3493
▁류	-11.35
▁시민단체	-11.3506
▁잠재	-11.3508
▁수행하	-11.3511
▁의뢰	-11.3512
그들은	-11.3512
겠	-11.3515
▁재미	-11.3517
▁맞이하	-11.3518
▁적지	-11.3519
▁빚어	-11.3521
스트라	-11.3521
▁고기	-11.3526
old	-11.3528
커스	-11.3531
▁보아	-11.3537
명만	-11.3538
▁호흡	-11.3541
야당	-11.3543
봤다	-11.3545
▁벌어들	-11.3546
▁전미	-11.3551
▁유대	-11.3556
▁위치에	-11.3557
▁아담	-11.3557
헤르	-11.3557
▁나눠	-11.3562
▁발령	-11.3564
획	-11.3567
▁시판	-11.357
▁비공식	-11.357
롯	-11.357
옹	-11.357
▁단체에	-11.3571
렬	-11.3572
▁예상되는	-11.3572
▁BMW	-11.3574
▁가금류	-11.3574
▁가이트너	-11.3574
▁그랜드슬램	-11.3574
▁동계올림픽	-11.3574
▁레드삭스	-11.3574
▁레젭	-11.3574
▁로널드	-11.3574
▁루마니아	-11.3574
▁믿음	-11.3574
▁보건복지부	-11.3574
▁손해배상	-11.3574
▁안타깝	-11.3574
▁애틀란타	-11.3574
▁앨라배마	-11.3574
▁언색호	-11.3574
▁에탄올	-11.3574
▁오차범위	-11.3574
▁우비넨	-11.3574
▁찍었다	-11.3574
▁치렀	-11.3574
▁포틀랜드	-11.3574
▁폴라로이드	-11.3574
▁프리메라리가	-11.3574
▁플레이오프	-11.3574
덟	-11.3574
듬	-11.3574
룽	-11.3574
퀘	-11.3574
▁백화점	-11.3574
▁퇴역	-11.3574
▁뮤직	-11.3574
▁맥케인	-11.3574
▁유태인	-11.3574
▁프리킥	-11.3574
▁염두	-11.3574
▁프리츨	-11.3574
▁지저스	-11.3574
▁도덕적	-11.3574
▁퇴치	-11.3574
▁이소연	-11.3574
▁리더십	-11.3574
▁쟁점	-11.3574
▁페트로	-11.3574
▁호르몬	-11.3574
(23)	-11.3574
▁딜리	-11.3574
▁선제골	-11.3574
▁참의원	-11.3574
▁번호판	-11.3574
▁부정선거	-11.3574
▁빨간색	-11.3574
▁아마존	-11.3575
▁이틀째	-11.3575
▁비율이	-11.3575
▁토끼	-11.3575
▁무엇인가	-11.3575
▁지방선거	-11.3575
2007.04	-11.3575
▁석탄	-11.3575
▁평창	-11.3576
▁점유율	-11.3576
▁메이저	-11.3577
▁영입	-11.3577
▁권유	-11.3577
▁인디아나	-11.3577
▁검진	-11.3577
▁철거	-11.3577
▁격려	-11.3577
▁요격	-11.3577
▁터너	-11.3577
▁난폭	-11.3578
▁선고받았다	-11.3578
▁초대형	-11.3578
▁재능	-11.3578
▁예외	-11.3578
▁이루어질	-11.3579
▁친절	-11.3579
▁증산	-11.3579
▁검시관	-11.358
▁포스터	-11.358
▁소식통에따르면	-11.358
▁호박	-11.358
▁품질	-11.358
▁계단	-11.3581
▁1984	-11.3581
▁서열	-11.3581
▁육상	-11.3581
▁팔렸다	-11.3581
▁북경	-11.3581
▁화물선	-11.3581
▁포격	-11.3582
▁유머	-11.3582
▁출간	-11.3582
▁평등	-11.3583
▁안겨	-11.3583
▁동남	-11.3583
▁보수파	-11.3583
▁암호	-11.3583
▁증오	-11.3584
▁본래	-11.3584
▁사탕	-11.3584
▁높이고	-11.3584
▁곡물	-11.3586
▁HD	-11.3586
▁공범	-11.3586
▁받았습니다	-11.3586
▁교정	-11.3586
▁원격	-11.3586
▁SK	-11.3586
▁레저	-11.3586
시께	-11.3587
▁집이	-11.3587
▁추모식	-11.3588
▁울프	-11.3588
▁콜린스	-11.3589
▁용서	-11.3589
▁계열사	-11.3591
▁발작	-11.3591
▁국면	-11.3592
▁하퍼	-11.3592
▁단호	-11.3593
fire	-11.3594
▁엔화	-11.3594
▁비자금	-11.3595
▁체포됐으며	-11.3597
▁영역	-11.3597
88	-11.3598
▁125	-11.3598
▁루디	-11.3598
▁걸음	-11.3599
▁났	-11.3599
▁방침이다	-11.36
▁문신	-11.3601
▁공공장소에서	-11.3602
▁앙리	-11.3603
▁벌여왔	-11.3603
▁박차	-11.3603
▁Do	-11.3607
▁어디에	-11.3608
아웃	-11.3608
▁납치범	-11.3608
▁실종됐다	-11.361
▁잔인	-11.3611
▁와서	-11.3613
▁행운	-11.3613
▁항해	-11.3615
실에서	-11.3619
▁주입	-11.3619
▁상징적인	-11.3619
▁지명자	-11.3621
▁최상	-11.3622
▁4.5	-11.3623
▁누구나	-11.3624
▁필립스	-11.3626
▁비행선	-11.3627
▁하는데	-11.3628
▁총살	-11.3628
▁의존하고	-11.3628
지스	-11.3629
▁나라들	-11.363
▁주둔군	-11.3631
▁배아	-11.3632
▁열리기	-11.3633
▁붙이	-11.3633
▁넘어서	-11.3634
▁비중	-11.3634
▁연상	-11.3635
▁내달	-11.3636
▁거래소	-11.3638
▁플로	-11.364
▁접어들	-11.364
▁발견했으며	-11.3644
▁상승하며	-11.3644
▁간다	-11.3647
▁기대된다	-11.3647
▁충돌했다	-11.3648
▁덩어리	-11.3648
▁이민법	-11.3651
▁이룬	-11.3651
▁경유	-11.3652
▁기각했다	-11.3653
▁내리지	-11.3653
여금	-11.3654
▁빌라	-11.3655
▁일종	-11.3655
▁헨	-11.3657
▁인정하	-11.3658
▁진상	-11.3659
▁방콕에서	-11.3661
▁450	-11.3662
▁명인	-11.3665
▁투표권	-11.3666
▁서울대	-11.3667
▁포기하지	-11.3668
▁확인하지	-11.3669
▁수행했다	-11.3669
▁찬사	-11.3671
▁하더라도	-11.3672
▁토로했다	-11.3672
▁작품상	-11.3672
▁양당	-11.3674
▁달아	-11.3676
▁128	-11.3676
▁연예	-11.3677
▁전통적으로	-11.3678
▁3,000	-11.3678
▁World	-11.3678
Po	-11.3678
총리는	-11.3679
▁줄어	-11.3679
▁기록했으며	-11.3686
호르타	-11.369
▁공급받	-11.3692
▁몰린	-11.3692
▁포기할	-11.3693
▁하스	-11.3696
▁중태	-11.37
▁지나간	-11.37
▁과다	-11.3701
▁협상에서	-11.3702
▁비전	-11.3703
▁해법	-11.3703
였을	-11.3704
▁의원들과	-11.3705
▁물질이	-11.3707
ick	-11.3708
부문	-11.3713
▁배달	-11.3714
▁사랑하는	-11.3714
▁수준의	-11.3716
▁의견에	-11.3718
▁외교관들	-11.3722
▁직위	-11.3725
▁너	-11.3726
▁왕위	-11.3728
▁탁신은	-11.3729
▁살리	-11.373
▁왔으며	-11.3732
▁주사	-11.3733
피아	-11.3734
▁안고	-11.3737
▁방한	-11.3738
▁유명인사	-11.3739
▁관광객이	-11.374
▁ban	-11.3742
▁결함이	-11.3743
▁노린	-11.3743
▁문제다	-11.3744
▁자식	-11.3751
▁결정하지	-11.3752
▁헤어	-11.3755
▁라일	-11.3758
▁컨	-11.3758
▁지정된	-11.3759
▁공격하는	-11.376
▁가나	-11.377
▁연인	-11.3773
▁둔화	-11.3773
▁예고	-11.3779
▁벨리	-11.378
93	-11.3782
▁높이기	-11.3786
▁줄어들고	-11.3787
98	-11.3793
▁홀에서	-11.3794
▁베이징에	-11.3797
▁독자	-11.3798
▁바그다드에	-11.3798
▁내용이다	-11.3799
▁마이크로	-11.3802
▁은행은	-11.3803
티아	-11.3805
란다	-11.3807
▁거치	-11.3811
▁타는	-11.3814
▁선보	-11.3816
▁더미	-11.3817
▁통신과	-11.3818
얼리	-11.3819
십만	-11.382
리프	-11.3824
▁기다	-11.3826
▁들어가기	-11.3831
▁지사	-11.3833
▁봐	-11.3834
경기에	-11.3841
▁주장해	-11.3843
되었으나	-11.3851
▁순수	-11.3855
▁오를	-11.3858
▁본부장	-11.386
▁파괴된	-11.386
▁대원	-11.3861
▁항의했다	-11.3862
▁나온다	-11.3865
ever	-11.3868
▁실시됐다	-11.3872
▁복합	-11.3879
▁날로	-11.3884
▁투자가들	-11.3894
▁통상	-11.3894
잡지	-11.3895
패를	-11.3897
접	-11.3898
▁여진	-11.3899
▁직원과	-11.3901
▁표한다	-11.3902
▁나라에서	-11.3904
톱	-11.3907
컨	-11.3908
재판소	-11.3908
예비선거	-11.3909
함이	-11.3909
털	-11.3909
2008.12	-11.391
공화국	-11.3911
CIA	-11.3912
착륙	-11.3912
보좌관	-11.3912
자동차	-11.3912
잠	-11.3912
이스라엘	-11.3913
스페인	-11.3913
▁주거	-11.3917
▁내야	-11.392
개혁	-11.3923
▁자연적	-11.3927
평화	-11.3928
ance	-11.3929
대사관	-11.393
▁기념하기	-11.3934
▁폭락했다	-11.3935
▁꿈이	-11.3937
▁잡혀	-11.3938
▁하루만	-11.3939
▁센터는	-11.3942
예프	-11.3944
스턴	-11.3951
▁킬로미터	-11.3953
호프	-11.3953
▁피고인들	-11.3954
191	-11.3957
now	-11.3962
▁버렸다	-11.3965
국제	-11.3966
▁죽을	-11.3967
분기에	-11.3968
▁앤더슨	-11.3969
어지고	-11.3973
▁퇴원했다	-11.3973
MA	-11.3975
▁시도한	-11.398
케르	-11.398
▁심화	-11.3981
▁중재자	-11.3982
▁롤	-11.3983
화물	-11.399
▁당선된	-11.4002
min	-11.4004
▁무너지	-11.4005
▁모여들	-11.4006
▁쓰이	-11.4006
▁석방에	-11.4007
▁일으켰	-11.4008
ese	-11.4013
▁기간이	-11.4014
▁결정한	-11.4014
▁제작자들	-11.4027
자루	-11.4028
▁겪었	-11.4037
▁이브	-11.404
▁여겨	-11.4041
▁섬에	-11.4043
▁이라크로	-11.4045
▁매케인에	-11.4048
▁월터	-11.4054
▁싶어하	-11.4057
▁정규	-11.4057
▁기록됐다	-11.4063
▁시작되는	-11.4067
▁정찰	-11.4067
▁시달	-11.4068
▁접근할	-11.4068
07	-11.4068
▁못하면	-11.4068
파크	-11.4069
▁조세	-11.4069
모어	-11.407
▁쓰여	-11.407
▁특파원이	-11.4071
▁윤리	-11.4075
▁AK	-11.4076
▁정보국	-11.4081
▁중단된	-11.4082
▁미네소타	-11.4087
▁버몬트	-11.4088
▁밀집	-11.4088
▁테네시	-11.409
비행	-11.4091
▁he	-11.4096
▁퇴직	-11.4097
왓	-11.4098
▁꼬리	-11.4098
rate	-11.4098
▁델타	-11.4098
▁총기난사	-11.4099
▁얼룩	-11.4099
덩	-11.41
헴	-11.41
▁과테말라	-11.41
▁괴롭	-11.41
▁낮게	-11.41
▁낳았다	-11.41
▁내다봤다	-11.41
▁농산물	-11.41
▁뉴멕시코	-11.41
▁닌텐도	-11.41
▁디얄라	-11.41
▁라우터바흐	-11.41
▁로맨틱	-11.41
▁매릴랜드	-11.41
▁무크타다	-11.41
▁소렌스탐	-11.41
▁쌓인	-11.41
▁쓰러져	-11.41
▁아이슬란드	-11.41
▁안타까	-11.41
▁얼어붙	-11.41
▁엔터테인먼트	-11.41
▁여객선	-11.41
▁자이언트	-11.41
▁정동영	-11.41
▁질렀다	-11.41
▁카메론	-11.41
▁콘텐트	-11.41
▁콜레스테롤	-11.41
▁터무니	-11.41
▁프로듀서	-11.41
▁핸드폰	-11.41
▁호날두	-11.41
하였으나	-11.41
해줬다	-11.41
NYMEX	-11.41
▁UFO	-11.41
▁알자지라	-11.41
▁재규어	-11.41
▁합법화	-11.41
캘	-11.41
WTI	-11.41
▁마리화나	-11.41
▁올랜도	-11.41
▁자이툰	-11.41
▁팔루자	-11.41
▁흥행	-11.41
▁태어나	-11.41
▁원문기사	-11.41
▁하반기	-11.41
깜짝	-11.41
▁밀리밴드	-11.41
▁진원지	-11.41
▁후쿠다	-11.41
▁프레슬리	-11.41
▁브라더스	-11.41
▁first	-11.41
(24)	-11.41
▁와중에	-11.41
▁낙찰	-11.41
(27)	-11.41
▁봉착	-11.41
▁밀접	-11.41
▁농촌	-11.41
▁신용위기	-11.4101
▁일시	-11.4101
▁결승골	-11.4101
▁주립대학	-11.4101
2007.01	-11.4101
▁안젤리	-11.4101
▁Kim	-11.4101
▁홈런	-11.4102
▁레논	-11.4102
▁2.13	-11.4102
▁자본주의	-11.4102
▁무엇인지	-11.4102
▁줄어든	-11.4102
▁액수	-11.4102
▁패널	-11.4102
▁투항	-11.4103
▁통계청	-11.4103
▁싸울	-11.4103
▁있겠지만	-11.4103
▁가정집	-11.4103
▁떨어졌습니다	-11.4103
다르	-11.4104
▁논문	-11.4104
▁위안화	-11.4104
▁사찰	-11.4104
▁인질극	-11.4104
▁꾸미	-11.4104
▁야외	-11.4105
▁헌터	-11.4105
▁확보해	-11.4105
▁총격사건	-11.4105
▁침실	-11.4105
▁함정	-11.4106
▁발송	-11.4106
▁정교회	-11.4107
▁사냥꾼	-11.4107
▁주머니	-11.4107
▁보였지만	-11.4107
▁순회	-11.4107
▁잠재력	-11.4107
▁선거자금	-11.4108
▁들렸다	-11.4108
▁사절단	-11.4108
▁근본주의	-11.4109
▁승진	-11.4109
▁존드로	-11.4109
▁막았다	-11.4109
▁테네시주	-11.4109
▁누설	-11.4109
▁기부금	-11.411
▁황제	-11.4111
▁국토	-11.4111
▁112	-11.4111
▁잔디	-11.4111
▁테러공격	-11.4112
▁공백	-11.4112
▁긴장감	-11.4112
▁바스크	-11.4112
▁외각	-11.4112
▁나이키	-11.4113
▁지침	-11.4113
▁대열	-11.4113
▁사절	-11.4114
▁며칠간	-11.4115
▁분배	-11.4115
▁복부	-11.4116
▁웃음	-11.4116
▁만행	-11.4116
▁동거	-11.4116
▁웰	-11.4117
▁육성	-11.4119
▁자매	-11.412
▁신설	-11.412
▁달렸다	-11.4121
▁탈당	-11.4124
▁인천	-11.4124
▁태아	-11.4126
▁급진	-11.4128
▁버크	-11.413
▁스위	-11.4131
▁로즈	-11.4132
▁치우	-11.4132
▁2030	-11.4132
▁후보작	-11.4133
▁말았다	-11.4135
▁배정	-11.4136
▁경찰에게	-11.4136
▁반란	-11.4136
▁융	-11.4137
▁공표	-11.4139
▁시작했고	-11.4139
▁전투에서	-11.414
길에	-11.4143
▁무패	-11.4146
▁잡혔다	-11.4147
▁쉴	-11.4147
▁치아	-11.4147
▁누드	-11.4148
순위	-11.4148
GB	-11.4148
▁반감	-11.4149
간다	-11.4149
▁조그	-11.415
▁엔지니어	-11.4152
▁주차장에서	-11.4152
▁프린스	-11.4155
▁보호소	-11.4155
ound	-11.4155
▁번개	-11.4155
▁취업	-11.4157
▁전문의	-11.4158
▁띠	-11.4158
▁손님들	-11.416
▁통과할	-11.416
▁컵	-11.4161
▁금주	-11.4161
▁투수	-11.4162
▁구제안	-11.4163
BS	-11.4164
객들	-11.417
▁서있	-11.4171
▁내부에서	-11.4175
▁돌아왔	-11.4177
▁down	-11.4179
▁신성	-11.4179
▁중립	-11.4179
▁파르	-11.4182
▁비티	-11.4183
▁240	-11.4184
▁성능	-11.4184
▁상아	-11.4184
▁효과적인	-11.4186
▁말했었다	-11.4187
▁내정자	-11.4188
▁자란	-11.4189
▁휩싸였다	-11.4191
▁맺었다	-11.4194
▁기본적	-11.4196
▁행위로	-11.4196
▁민주당원들	-11.4196
▁목에	-11.4197
▁이동했다	-11.4199
▁시작했으며	-11.4201
▁한창	-11.4202
▁파견했다	-11.4204
▁재료	-11.4204
▁기르	-11.4205
▁발생했던	-11.4207
▁입장권	-11.4207
부족	-11.4208
87	-11.4209
▁희생자들이	-11.421
▁발표하면서	-11.421
▁끝내고	-11.4211
▁호주군	-11.4213
▁해준다	-11.4213
▁주력	-11.4214
▁내년에	-11.4216
▁방문한다	-11.4216
▁박스	-11.4216
▁정상에	-11.4217
aw	-11.4219
▁논쟁의	-11.4219
꾼	-11.4221
▁De	-11.4221
▁서부지역	-11.4223
▁우주에서	-11.4226
▁타이거	-11.4227
▁몰리	-11.4228
라트	-11.423
▁주시하	-11.423
▁랩	-11.4232
▁폭발물이	-11.4232
▁결정된	-11.4235
▁분명하다	-11.4242
▁WTO	-11.4242
▁조차	-11.425
▁입장이다	-11.4255
rch	-11.4259
▁시점에	-11.4264
▁상표	-11.4267
▁MDC	-11.4267
▁떠나지	-11.4269
Ear	-11.4269
▁상업적	-11.4274
ator	-11.4275
▁증상이	-11.4275
▁su	-11.4277
▁랜드	-11.4278
▁나르	-11.428
▁one	-11.428
▁단계적	-11.4281
▁경사는	-11.4283
▁차이나	-11.4283
▁마자	-11.4283
▁시민이	-11.4284
건에	-11.4286
▁되려	-11.4286
▁구조됐다	-11.4287
정권	-11.429
▁갇혀있	-11.4292
▁투자가	-11.4293
▁완화하기	-11.4296
▁앞에서	-11.4303
▁잉	-11.4304
전문	-11.4306
▁딴	-11.4306
▁베를린에서	-11.4307
▁조화	-11.4318
▁개발도상국	-11.4319
▁식당에서	-11.432
면서도	-11.4321
지수가	-11.4328
▁민영	-11.4329
▁피우	-11.433
▁지원한	-11.4332
▁등록된	-11.4333
년대에	-11.4336
척이	-11.4338
▁멘	-11.4338
문화	-11.4339
마트	-11.4342
▁아파트에서	-11.4342
▁숨지	-11.4342
성과	-11.4343
▁장소에	-11.4343
▁시스템에	-11.4343
▁세라	-11.4344
the	-11.4344
▁개최지	-11.4349
▁선박들	-11.435
use	-11.435
▁차원	-11.4356
▁소유자	-11.4359
▁진출에	-11.436
▁회전	-11.4361
▁빙	-11.4365
▁수년간	-11.4365
▁부분에	-11.4373
▁하는지	-11.4374
아누	-11.4379
▁말하면서	-11.4379
▁세르	-11.4383
▁무장세력과	-11.4385
주기	-11.4386
▁시리아와	-11.4386
▁경찰관들	-11.4386
▁돼있다	-11.4395
▁안다	-11.4399
▁생각된다	-11.4406
▁범죄자들	-11.4406
▁신자	-11.4411
▁외곽에	-11.4411
빨	-11.4417
▁당원	-11.4421
▁방위	-11.4426
▁법에	-11.4426
▁개들	-11.4427
▁전비	-11.4431
▁여행사	-11.4431
닐	-11.4433
▁잃어	-11.4434
▁측에	-11.4435
▁우려해	-11.4435
▁오프	-11.4438
▁나사	-11.4441
▁작가들	-11.4442
▁우주비행사들	-11.4445
▁내기	-11.4445
▁미얀마에서	-11.4448
▁별개	-11.4448
▁과일	-11.4449
▁가정에서	-11.4456
▁아니고	-11.4456
Bo	-11.4456
▁교사들	-11.4457
▁감독상	-11.446
아버지	-11.4462
▁집회에서	-11.4462
죽	-11.4465
실적	-11.4465
탐	-11.4467
즐	-11.4467
스위스	-11.4468
투쟁	-11.4468
▁피의자	-11.4471
▁벌인다	-11.4472
분쟁	-11.4474
코브	-11.4475
만약	-11.4476
▁지방에	-11.4476
MD	-11.4477
▁여성으로	-11.4477
관광	-11.448
집단	-11.448
▁아프리카에서	-11.4481
▁수단으로	-11.4481
▁하나다	-11.4482
연설	-11.4486
▁원주민들	-11.4492
나갔다	-11.4496
자녀	-11.4496
월말	-11.4498
▁결심했다	-11.4504
▁고국	-11.4506
하기위해	-11.4508
▁월스트리트에서	-11.4509
▁층	-11.4515
영국	-11.4517
▁노출되	-11.4522
▁기여	-11.4525
▁지속되	-11.4526
▁FA	-11.4531
▁방문했	-11.4544
▁친구와	-11.4545
▁경선이	-11.4547
▁발견해	-11.4551
▁방송이	-11.4553
주재	-11.4554
▁캘리포니아에서	-11.4556
▁모가디슈	-11.4556
▁밀수	-11.4559
▁고속도로에서	-11.456
▁째	-11.4561
▁칠	-11.4562
▁부자	-11.4564
주민	-11.4568
▁자바	-11.4568
벨리	-11.4571
▁레바논에서	-11.4573
머스	-11.4574
▁호르	-11.4574
▁알려졌	-11.4578
▁벌어졌	-11.4584
▁해외로	-11.459
감시	-11.4591
▁캐나다에서	-11.4592
배로	-11.4593
▁금지된	-11.4595
이었지만	-11.4598
회장	-11.46
물인	-11.4604
▁일어	-11.4606
▁사실이다	-11.4607
시키다	-11.4614
▁주자	-11.4615
▁하위	-11.4617
▁총리에	-11.4617
▁놓인	-11.4617
▁한국으로	-11.4619
ors	-11.462
▁병장	-11.462
화와	-11.4628
▁젠	-11.4632
▁테러범이	-11.4633
▁남겨	-11.4635
▁붕괴되	-11.4637
▁이상으로	-11.4638
▁사진에	-11.4638
▁린다	-11.4641
▁올림픽에	-11.4642
▁발사된	-11.4643
▁은행이	-11.4643
▁해안가	-11.4644
무대	-11.4647
합법적으로	-11.4647
리드	-11.4647
툴	-11.4648
▁콜린	-11.4648
▁이야기는	-11.4649
▁경제성장	-11.465
셉	-11.4652
샬	-11.4653
빗	-11.4654
▁무효	-11.4655
궐	-11.4655
랫	-11.4655
4,000	-11.4655
▁200809.1	-11.4655
▁그린스펀	-11.4655
▁금강산	-11.4655
▁급상승	-11.4655
▁꿀벌	-11.4655
▁뉴욕상업거래소	-11.4655
▁독극물	-11.4655
▁드라이브	-11.4655
▁라스무센	-11.4655
▁맞교환	-11.4655
▁믿지	-11.4655
▁바랍니다	-11.4655
▁베테랑	-11.4655
▁불필요	-11.4655
▁빈라덴	-11.4655
▁선거기부금	-11.4655
▁세골렌	-11.4655
▁신용경색	-11.4655
▁신천옹	-11.4655
▁알사드르	-11.4655
▁앙카라	-11.4655
▁애널리스트	-11.4655
▁애틀랜티스호	-11.4655
▁와지리스탄	-11.4655
▁잃게	-11.4655
▁정확하게	-11.4655
▁좋았다	-11.4655
▁즈보나레바	-11.4655
▁즐거움	-11.4655
▁카톨릭	-11.4655
▁테헤란	-11.4655
▁텔레콤	-11.4655
▁투탕카멘	-11.4655
▁펌프	-11.4655
▁푸에르토리코	-11.4655
▁프란시스	-11.4655
쏜	-11.4655
엽	-11.4655
캄	-11.4655
▁high	-11.4655
▁갱신	-11.4655
▁노워크	-11.4655
▁신생아	-11.4655
▁아메드	-11.4655
▁자부심	-11.4655
▁주미대사	-11.4655
밭	-11.4655
셜	-11.4655
back	-11.4655
▁Secretary	-11.4655
▁government	-11.4655
▁자민당	-11.4655
▁혼잡	-11.4655
▁눈보라	-11.4655
▁두개골	-11.4655
▁오마바	-11.4656
▁사직서	-11.4656
▁선진국	-11.4656
▁비너스	-11.4656
▁발자국	-11.4656
▁소령은	-11.4656
여성	-11.4656
▁놀랍	-11.4656
▁페인트	-11.4656
▁설문조사	-11.4656
▁관절염	-11.4656
▁노숙자	-11.4656
(21)	-11.4656
▁그래픽	-11.4656
▁소수민족	-11.4656
▁몸싸움	-11.4656
▁에밀리	-11.4656
▁아이팟	-11.4656
▁왕궁	-11.4657
▁네그로폰테	-11.4657
▁코미디언	-11.4657
▁그린존	-11.4657
▁투옥	-11.4657
▁척추	-11.4657
▁포옹	-11.4657
2006.06	-11.4657
▁별도로	-11.4657
▁유럽축구연맹	-11.4657
▁토레	-11.4658
리터	-11.4658
▁신분증	-11.4658
▁중앙정보	-11.4658
▁배럭	-11.4658
▁관광산업	-11.4658
▁이끌었던	-11.4658
▁피해여성	-11.4659
아노	-11.4659
▁이반	-11.4659
▁터져	-11.4659
▁친밀	-11.4659
▁청색	-11.4659
▁외교정책	-11.4659
▁음란물	-11.4659
▁도발적	-11.466
▁나이로비	-11.466
▁일요일에	-11.4661
▁다룰	-11.4661
▁봅	-11.4662
▁에이미	-11.4662
▁단축	-11.4662
▁연애	-11.4662
▁항복	-11.4662
▁절단	-11.4662
▁재앙	-11.4662
▁단절	-11.4662
브라이트	-11.4663
▁늘어난	-11.4663
▁크라	-11.4663
▁푸미	-11.4663
▁부착	-11.4663
▁첫째	-11.4663
▁금지령	-11.4664
돌프	-11.4664
▁독립국가	-11.4664
▁모여들었다	-11.4664
▁노엘	-11.4665
▁인준	-11.4665
ttle	-11.4665
▁만들어졌다	-11.4665
▁반란군	-11.4666
▁버려	-11.4666
▁정글	-11.4666
명이다	-11.4666
▁강철	-11.4667
▁없었으며	-11.4667
▁되면서	-11.4667
▁없었지만	-11.4667
▁베스트	-11.4667
▁미시건주	-11.4668
▁1975	-11.4668
차원	-11.4669
▁해산물	-11.4669
▁예정이지만	-11.4669
▁사이먼	-11.467
▁일삼	-11.467
▁대담	-11.4671
▁급파	-11.4672
▁앞서있다	-11.4673
▁복사	-11.4673
▁사정	-11.4673
▁2014	-11.4673
▁시청률	-11.4674
▁변형	-11.4675
▁드문	-11.4676
▁점심	-11.4679
▁영아	-11.4679
▁코란	-11.468
ise	-11.468
비드	-11.468
▁린치	-11.4681
▁최근까지	-11.4681
▁노벨상	-11.4681
▁파타당	-11.4682
▁평론가들은	-11.4682
▁위법	-11.4682
▁참수	-11.4682
▁순간에	-11.4683
▁말했	-11.4683
▁지하실	-11.4683
▁공격하기	-11.4683
▁펴	-11.4683
▁있을까	-11.4684
▁지켜봤다	-11.4684
▁빈번	-11.4684
▁시합	-11.4685
▁풍자	-11.4688
▁금융계	-11.4688
▁벤치	-11.4689
▁불거	-11.4689
받을	-11.4691
▁연정	-11.4691
▁치료법	-11.4691
▁스노	-11.4692
▁풀어주	-11.4694
▁이끈	-11.4694
▁라파	-11.4695
▁작곡가	-11.4696
▁시대에	-11.4696
▁위험하다	-11.4698
▁노동자들이	-11.4698
▁Gr	-11.4699
199	-11.4699
▁연관성	-11.47
▁옮겨졌다	-11.4701
▁두목	-11.4703
▁하사	-11.4703
▁피로	-11.4704
▁가져왔다	-11.4706
▁98	-11.4706
▁이용하여	-11.4707
▁지하드	-11.4708
▁나타난다	-11.4708
▁홈페이지에	-11.4713
▁적군	-11.4713
▁보수적인	-11.4715
▁멍	-11.4717
▁승인한	-11.4717
▁끝나지	-11.4717
요원들	-11.4719
ence	-11.4721
▁금연법	-11.4722
state	-11.4722
▁발표되지	-11.4723
▁분주	-11.4723
▁입원해	-11.4725
▁모바일	-11.4726
▁동의한다	-11.4728
▁가담한	-11.4729
▁인질들은	-11.473
▁못했으며	-11.473
▁영해	-11.4734
▁대면	-11.4734
▁연어	-11.4738
▁슈퍼대의원	-11.4738
▁임무에	-11.4742
▁시사했다	-11.4745
▁곳곳에서	-11.4745
▁공개될	-11.4747
▁걸리는	-11.4751
▁체포됐	-11.4751
▁이겼다	-11.4753
▁빨라	-11.4753
▁후속	-11.4754
▁사고에	-11.4755
▁드러	-11.4756
▁견디	-11.4756
▁다루는	-11.4761
▁남부지역에서	-11.4761
▁승려	-11.4762
▁분리주의자들	-11.4763
▁근거지	-11.4766
▁말레이시아에서	-11.4768
▁참가국	-11.4773
▁윤리적	-11.4777
▁장점	-11.4781
EC	-11.4782
▁길게	-11.4783
블리	-11.4787
▁일조	-11.479
▁핵문제	-11.4792
▁제기한	-11.4793
▁경의	-11.4796
▁저명	-11.4799
▁시선	-11.4801
레즈	-11.4802
▁내려오	-11.4802
▁결혼했다	-11.4802
▁들어왔다	-11.4803
▁동해	-11.4804
▁따라잡	-11.4805
▁농장에서	-11.4806
▁아비	-11.4806
▁성전	-11.4808
▁지불할	-11.4811
▁220	-11.4813
▁재미있는	-11.4813
tic	-11.4814
▁87	-11.4817
시민	-11.4818
탈루	-11.4818
▁교도	-11.4818
▁루이	-11.4821
해왔으며	-11.4821
만달러를	-11.4823
▁조사팀	-11.4823
▁사무소	-11.4825
▁정치에	-11.4827
▁이사는	-11.4831
▁사람으로	-11.4831
▁변수	-11.4832
판매	-11.4832
▁외곽에서	-11.4836
▁열리고	-11.4837
▁카불에서	-11.4837
▁국가는	-11.484
▁103	-11.4846
▁결승전에	-11.4846
▁실직자	-11.4847
▁허위	-11.485
▁이슬라마바드에서	-11.4851
▁잃어버	-11.4853
▁버스에	-11.4855
▁활	-11.4855
▁오만	-11.4857
▁악명	-11.4859
▁거론	-11.486
▁팀에	-11.4863
▁충돌해	-11.4864
▁협정에	-11.487
▁위협받	-11.4873
▁가시	-11.4874
▁연행됐다	-11.4875
▁마르코	-11.488
▁불안한	-11.4883
▁따르지	-11.4884
▁영구	-11.489
▁지원에	-11.4892
▁나이에	-11.4899
▁공해	-11.49
▁겐	-11.4901
▁시작한다	-11.4904
▁산업이	-11.491
▁불만이	-11.4918
▁일반인	-11.4919
▁램	-11.4921
▁체포되	-11.4922
▁중단시키	-11.4922
▁다치	-11.4924
net	-11.4926
▁죽였다	-11.4926
개국이	-11.493
▁방에서	-11.4932
▁국가와	-11.4937
▁압도적	-11.4942
▁수사관들	-11.4944
▁일했다	-11.4945
실장	-11.4949
▁이집트에서	-11.495
시마	-11.4951
▁남지	-11.4951
▁움직이는	-11.4952
▁후안	-11.4956
팀이	-11.4956
▁An	-11.496
게이트	-11.4964
LA	-11.4966
▁파기	-11.4968
▁수준에	-11.4968
내기	-11.4972
▁마련된	-11.4975
시간만	-11.4975
▁비리	-11.4977
▁소행이라	-11.4979
▁제조사	-11.4983
▁인정하고	-11.4987
▁작고	-11.4987
▁일부분	-11.4988
나마	-11.499
▁정신병	-11.5005
▁한국측	-11.5006
단지	-11.5007
▁정직	-11.501
▁커플은	-11.5022
자크	-11.5023
▁구속됐다	-11.5036
▁시작하는	-11.5038
▁미화	-11.504
▁지역과	-11.504
▁지원했다	-11.5043
▁제어	-11.5044
▁제시할	-11.5046
휘	-11.5047
먹	-11.5047
몽	-11.505
▁태국에서	-11.5051
▁생겼	-11.5051
웃으며	-11.5051
▁감독과	-11.5052
붙	-11.5054
딕	-11.5054
IOC	-11.5055
그것은	-11.5056
클럽	-11.5056
잘	-11.5057
아프간	-11.5057
▁확보에	-11.5057
▁지아	-11.5061
▁Be	-11.5061
unt	-11.5064
lli	-11.5064
▁다해	-11.5064
▁들어왔	-11.5064
▁미군에	-11.5065
이것은	-11.5065
▁작년에	-11.5066
▁물리치	-11.5069
조각	-11.5075
▁능력이	-11.5075
▁가하는	-11.5076
군데	-11.5081
헤드	-11.5083
▁못하다	-11.5086
▁독일과	-11.509
▁김씨	-11.5092
▁하드	-11.5093
▁모델로	-11.5095
▁내부에	-11.5095
▁농부	-11.5102
▁적도	-11.5107
시절	-11.5109
메스	-11.5117
▁팔레스타인인들	-11.5117
▁좌	-11.512
▁밀리	-11.5123
치기	-11.5127
▁이전에는	-11.5128
▁입히	-11.5129
킨스	-11.513
▁치명적	-11.5131
민주	-11.5137
프리	-11.5139
▁이용자	-11.5145
01	-11.5146
▁보여준	-11.5148
▁처했다	-11.5149
▁바람에	-11.5154
▁생각은	-11.5164
▁차량에서	-11.5164
▁제품들	-11.5169
ther	-11.517
▁도시들	-11.517
▁북한군	-11.5172
쿨	-11.5173
▁고생	-11.5176
▁소실	-11.5176
명씩	-11.5177
여년	-11.5179
▁과거사	-11.5183
▁제품이	-11.5183
▁홈페이지	-11.5184
▁생각할	-11.5184
므	-11.5185
▁이외	-11.5185
▁무장세력들	-11.5186
정지	-11.5186
▁소방서	-11.5188
▁분리주의	-11.5197
▁싼	-11.5201
▁적대적	-11.5201
▁재미있	-11.5201
수단	-11.5203
▁중력	-11.5203
▁피플	-11.5206
▁홍콩에서	-11.521
번호	-11.5212
▁경호원들	-11.5214
호주	-11.5216
▁일년	-11.5217
▁외계	-11.5218
▁건물들이	-11.5219
빠	-11.5219
▁참가국들	-11.522
▁파키스탄과	-11.5224
▁우주비행	-11.5227
▁아나	-11.5227
▁바다에	-11.5228
▁불행	-11.5229
▁해결에	-11.5229
▁운전자들	-11.5229
▁이스트	-11.5231
▁산업에	-11.5233
▁이유에	-11.5234
▁다국적	-11.5234
▁leader	-11.5235
▁검문	-11.5237
첩	-11.524
▁알렉	-11.5241
깃	-11.5242
▁행동으로	-11.5243
펀	-11.5244
윗	-11.5244
▁death	-11.5244
▁가깝게	-11.5244
▁가라앉	-11.5244
▁개성공단	-11.5244
▁경기후퇴	-11.5244
▁긱스	-11.5244
▁낙하산	-11.5244
▁돈세탁	-11.5244
▁땅콩	-11.5244
▁라크시미	-11.5244
▁롱고리아	-11.5244
▁마스터즈	-11.5244
▁메릴린치	-11.5244
▁불매운동	-11.5244
▁선거캠페인	-11.5244
▁성매매	-11.5244
▁싫어하	-11.5244
▁아라파트	-11.5244
▁악천후	-11.5244
▁암스테르담	-11.5244
▁애슐리	-11.5244
▁없음	-11.5244
▁와이오밍	-11.5244
▁요하네스버그	-11.5244
▁제너럴	-11.5244
▁좋겠다	-11.5244
▁초콜릿	-11.5244
▁췌장암	-11.5244
▁칠면조	-11.5244
▁키드먼	-11.5244
▁토튼햄	-11.5244
▁트리폴리	-11.5244
▁퍼레이드	-11.5244
▁해안경비대	-11.5244
습니까	-11.5244
쯔	-11.5244
퐁	-11.5244
PMLN	-11.5244
▁200806.0	-11.5244
▁England	-11.5244
▁만델라	-11.5244
▁의구심	-11.5244
▁최우수	-11.5244
▁페르난도	-11.5244
▁State	-11.5244
▁나타날	-11.5244
▁몰아넣	-11.5244
▁순이익	-11.5244
▁에스트라다	-11.5244
▁임산부	-11.5244
▁추기경	-11.5244
▁폭넓	-11.5244
무장혁명군	-11.5244
▁파이프라인	-11.5244
▁홈구장	-11.5244
▁원자재	-11.5244
▁획기적	-11.5244
▁아폴로	-11.5244
▁헝가리	-11.5244
▁가볍	-11.5244
▁해들리	-11.5244
▁곤란	-11.5244
▁하루종일	-11.5244
▁트레이드	-11.5244
▁나이트클럽	-11.5244
▁아로요	-11.5244
▁인공위성	-11.5244
▁루카스	-11.5244
▁번화가	-11.5244
▁페라로	-11.5244
▁무하메드	-11.5244
▁혜성	-11.5244
▁묵념	-11.5244
▁근접	-11.5244
▁탈퇴	-11.5244
▁파란색	-11.5244
▁있느냐	-11.5244
▁바레인	-11.5244
ECB	-11.5245
▁로리언	-11.5245
▁휘말	-11.5245
▁다툼	-11.5245
▁체험	-11.5245
▁바오로	-11.5245
▁공동성명	-11.5245
▁싱글	-11.5245
▁삼성그룹	-11.5245
▁몬테	-11.5245
▁쿠마르	-11.5245
▁즐겨	-11.5245
▁오래전부터	-11.5245
▁틀림	-11.5245
▁넘겼다	-11.5245
▁십자가	-11.5245
▁항의시위	-11.5246
▁완승	-11.5246
▁맞춘	-11.5246
▁불쾌감	-11.5246
▁절망	-11.5247
▁스테판	-11.5247
▁자유로운	-11.5247
▁막으려	-11.5247
▁증권거래소	-11.5247
▁회색	-11.5247
▁그래함	-11.5247
▁좌우	-11.5247
링턴	-11.5247
스테이트	-11.5247
▁반도체	-11.5247
▁아이다호	-11.5247
런스	-11.5248
▁몰락	-11.5248
▁신념	-11.5248
▁당했	-11.5249
▁은폐	-11.5249
▁중동평화회의	-11.525
▁난항	-11.525
▁숨져	-11.525
▁오리건주	-11.525
▁몫	-11.525
▁사촌	-11.525
살짜리	-11.5251
▁직무	-11.5251
▁무척	-11.5251
팍스	-11.5251
▁정부측	-11.5251
메모리얼	-11.5252
▁초드리	-11.5252
▁미주리주	-11.5253
별로	-11.5253
▁공격해	-11.5253
2006.11	-11.5253
▁투병	-11.5253
▁리틀	-11.5253
▁지폐	-11.5253
▁카누	-11.5253
▁도착하자	-11.5254
▁속출	-11.5254
▁출산율	-11.5255
▁폴락	-11.5255
▁라이더	-11.5255
▁난처	-11.5256
▁고집	-11.5256
▁디에고	-11.5256
▁94	-11.5256
▁악마	-11.5256
▁교역	-11.5257
▁각료회의	-11.5257
▁드러나	-11.5257
▁밝혀질	-11.5258
▁사과문	-11.5258
▁질병에	-11.5258
▁탈선	-11.5258
▁조율	-11.5258
▁묻혀	-11.5258
▁정유	-11.5258
▁보험금	-11.5258
▁조립	-11.5259
▁보였으며	-11.5259
▁카이로	-11.5259
▁정박	-11.526
▁도박	-11.526
▁장관으로	-11.526
▁가졌으며	-11.526
▁충성	-11.5261
▁SG	-11.5261
▁베이비	-11.5263
▁공작	-11.5263
▁선교	-11.5264
▁데이트	-11.5264
▁스탠리	-11.5265
▁실질적으로	-11.5265
▁판결문	-11.5265
▁비정부	-11.5265
▁끼치	-11.5265
▁매설	-11.5266
▁서버	-11.5266
▁투하	-11.5267
▁구두	-11.5268
▁안았다	-11.5268
▁플로리다에서	-11.5269
▁웰스	-11.527
▁루즈	-11.5271
▁레노	-11.5271
▁섬유	-11.5272
▁프로젝트에	-11.5273
▁확정된	-11.5274
▁형량	-11.5275
▁그곳	-11.5276
▁만회	-11.5277
▁신종	-11.5278
▁장애물	-11.5278
▁금지했다	-11.5278
▁치타	-11.5279
▁비평가들은	-11.528
▁흘리	-11.528
▁친분	-11.5282
▁종전	-11.5282
▁세울	-11.5282
ai	-11.5283
▁의류	-11.5283
▁실바	-11.5285
▁항공편	-11.5285
▁썩	-11.5285
▁벤자민	-11.5285
▁극도로	-11.5286
▁채무	-11.5286
▁돌진	-11.5288
▁상원의원직	-11.529
▁가계	-11.5292
▁교실	-11.5295
▁대신해	-11.5295
▁붙였다	-11.5296
▁가이드	-11.5297
▁이빨	-11.5297
▁리마	-11.5299
▁반경	-11.5299
▁1400	-11.5301
▁리우	-11.5303
▁회복세	-11.5304
▁1600	-11.5304
▁대학생들	-11.5304
▁설명하지	-11.5305
▁카디	-11.5306
▁공화당원들	-11.5306
▁변하지	-11.5306
▁자질	-11.5307
61	-11.5307
▁트럭에	-11.531
▁결과에따라	-11.531
▁비방	-11.5314
▁동상	-11.5314
▁설치한	-11.5314
▁태세	-11.5315
스프링스	-11.5316
▁우수	-11.5317
▁지났	-11.5317
▁코스타	-11.5318
▁빅토	-11.5319
▁나간	-11.5319
▁따내	-11.5321
▁과도한	-11.5324
브레	-11.5326
▁대미	-11.5327
▁북해	-11.5327
▁제인	-11.5329
▁미션	-11.533
▁돌아간	-11.533
그램	-11.5332
▁샘	-11.5332
▁돌아가는	-11.5333
▁합법적인	-11.5333
▁말했으나	-11.5334
▁구속력	-11.5335
▁그레	-11.5335
▁결승에서	-11.5337
▁클라인	-11.5337
▁통신에	-11.5338
▁소원	-11.5338
ile	-11.5339
▁선포한	-11.5339
▁전용기	-11.5341
▁연합통신	-11.5341
▁0.1	-11.5344
▁FIFA	-11.5344
▁건스	-11.5346
▁APEC	-11.5346
▁주심	-11.5347
▁투표소	-11.5348
▁막는	-11.5349
▁태워	-11.5351
▁주목할	-11.5353
▁촬영된	-11.5356
▁서명한	-11.5356
▁의미하는	-11.5357
▁노력으로	-11.5359
SP	-11.536
▁구속했다	-11.536
▁우주센터	-11.5362
▁여당이	-11.5369
군요	-11.537
▁몰아내	-11.537
▁출판사	-11.537
어지는	-11.537
▁얼굴에	-11.5371
▁람	-11.5375
▁배상	-11.5378
▁보이지만	-11.5379
▁아랍어	-11.5381
▁건물들	-11.5382
▁카라치에서	-11.5382
▁생각하	-11.5383
있지	-11.5387
▁생사	-11.5387
▁다르지	-11.5388
▁대구	-11.5389
▁리사	-11.5389
▁현직	-11.539
▁오르기	-11.5391
▁측면에서	-11.5393
▁정서	-11.5393
▁감기	-11.5394
▁묵인	-11.5394
학회	-11.5394
▁촬영했다	-11.5396
사르	-11.5399
▁그외	-11.5402
▁기관들	-11.5404
▁게임에	-11.5408
▁메가	-11.5409
▁스텔	-11.5411
▁통과했다	-11.5411
▁돌며	-11.5412
▁궤도에	-11.5413
▁올렸	-11.5415
▁탈레반에	-11.5416
머니	-11.5417
마드	-11.5425
▁표기	-11.5427
▁잘라	-11.5432
방안	-11.5432
▁추방된	-11.5437
▁작위	-11.5437
▁경찰관이	-11.5444
▁조심스럽	-11.5448
▁예상한	-11.5449
▁제조회사	-11.5449
▁구성원	-11.5452
▁사용된다	-11.5453
▁지켜보고	-11.5453
▁광장에서	-11.5455
미사	-11.5457
▁생산성	-11.5457
▁만나고	-11.5463
물질	-11.5463
▁당선됐다	-11.5464
▁제조업	-11.5464
▁선호	-11.5466
gin	-11.5469
▁만나는	-11.5474
▁노던	-11.5476
▁모아이	-11.5478
▁존재하지	-11.5478
▁말했으며	-11.5479
봤	-11.548
▁일이었다	-11.5481
▁참여하고	-11.5482
▁경기장에서	-11.5485
▁담겨	-11.5488
▁친척들	-11.5495
▁세우고	-11.5496
▁사태로	-11.5496
▁관계자와	-11.5497
ense	-11.5499
▁주전	-11.5501
ton	-11.5501
▁바라보	-11.5501
▁전후	-11.5507
▁재계	-11.5508
▁운항이	-11.5511
▁조달	-11.5513
▁이탈리아에서	-11.5514
▁매춘부	-11.5517
▁합류했다	-11.5518
▁분기	-11.5521
▁특파원은	-11.5525
▁폭도	-11.5526
▁켄	-11.5529
▁그녀에게	-11.5531
985	-11.5534
▁주어지	-11.5534
▁조사하는	-11.5537
ice	-11.5537
▁달했다	-11.5539
▁해치	-11.554
▁제작했다	-11.5544
▁그루	-11.5546
▁발효	-11.5548
▁얀	-11.5549
평화로운	-11.5549
▁결의안이	-11.5556
▁기독교인	-11.5557
▁생명에	-11.5561
▁주식시장에서	-11.5564
▁지배하	-11.5565
▁검	-11.5568
▁자원봉사자들	-11.5573
▁홀리	-11.5574
▁흥분한	-11.5579
▁부탁했다	-11.5582
티드	-11.5593
▁기존에	-11.5598
▁아서	-11.5598
▁회복하고	-11.5599
해주고	-11.5602
▁인터넷에서	-11.5608
작업을	-11.5608
▁성공할	-11.561
▁흔적이	-11.5611
▁96	-11.5613
▁강화하기	-11.5615
마라	-11.5622
▁철학	-11.5624
▁배우자	-11.5631
▁오르는	-11.5638
▁분리된	-11.5639
▁만들어지	-11.5644
▁타마	-11.5648
▁해일	-11.5649
코트	-11.5651
▁포크	-11.5657
▁수백만명	-11.5657
가렛	-11.5657
38	-11.566
밤	-11.5661
혹	-11.5669
강한	-11.5672
뷰	-11.5675
▁트럭이	-11.5676
▁인물이라	-11.5678
▁영화화	-11.5678
2006.01	-11.5679
MDC	-11.5679
헬	-11.5679
UEFA	-11.5679
딸	-11.568
▁혐의와	-11.5681
▁공로	-11.5682
평방	-11.5682
▁블리	-11.5684
▁날에	-11.5688
▁동원됐다	-11.5689
▁thi	-11.5693
▁절반이	-11.5694
성향	-11.5695
장소	-11.5698
열차	-11.5701
▁개정된	-11.5702
▁미끄러	-11.5704
모양	-11.5705
위와	-11.5708
ize	-11.571
신청	-11.5712
▁박물관에	-11.5718
▁중장	-11.5719
▁97	-11.5719
▁체인	-11.5725
▁기지에	-11.5726
▁권했다	-11.5726
▁한반도에서	-11.5727
▁워싱턴에	-11.5737
▁이행할	-11.5737
▁울리	-11.5739
▁관람객	-11.5739
▁포도	-11.5739
지역으로	-11.5743
▁천명	-11.5743
터키	-11.5748
▁먹을	-11.5751
▁십년	-11.5753
▁190	-11.5755
▁동부에	-11.5755
당신	-11.5759
위성	-11.5762
략	-11.5763
▁포기한	-11.5768
▁폭도들	-11.5768
▁KT	-11.5776
▁제의	-11.5779
중단	-11.5781
차관	-11.5783
▁생중계	-11.5784
▁126	-11.5785
▁고민	-11.5792
▁나토군이	-11.5795
▁대장	-11.5799
▁우승했다	-11.5799
▁시작된다	-11.5799
하원	-11.58
▁기준에	-11.5801
공원	-11.5801
▁사임한	-11.5802
▁프린	-11.5805
▁지나면	-11.5808
▁여왕이	-11.581
▁훔	-11.581
▁반대해	-11.5811
▁바람직	-11.5813
▁가혹	-11.5815
▁위원회에서	-11.5816
교회	-11.5816
▁만지	-11.5817
▁조심	-11.5818
▁교황이	-11.5822
▁의원과	-11.5824
할지도	-11.5826
▁보도자료	-11.5829
▁인체	-11.5833
▁시작하기	-11.5852
▁침	-11.5853
▁미주리	-11.586
랍	-11.5863
회전	-11.5864
▁로렌	-11.5864
▁레인	-11.5864
보리스	-11.5864
붕	-11.5864
▁캐롤	-11.5865
▁빠뜨	-11.5865
튜	-11.5867
쇠	-11.5867
셋	-11.5867
▁힌두	-11.5868
▁회사에서	-11.5868
▁수마트라	-11.5868
▁첨단	-11.5869
▁뱅크	-11.5869
겹	-11.5869
벡	-11.5869
2007.02	-11.5869
OECD	-11.5869
▁Party	-11.5869
▁갖췄다	-11.5869
▁같아	-11.5869
▁같지	-11.5869
▁뇌졸중	-11.5869
▁뚜렷	-11.5869
▁르완다	-11.5869
▁메르세데스	-11.5869
▁모레스모	-11.5869
▁미항공우주국	-11.5869
▁바나프샤	-11.5869
▁박정희	-11.5869
▁버시바우	-11.5869
▁베를루스코니	-11.5869
▁부총재	-11.5869
▁비아그라	-11.5869
▁새크라멘토	-11.5869
▁슈나이더	-11.5869
▁스콜세지	-11.5869
▁스탤론	-11.5869
▁스틸러스	-11.5869
▁식이요법	-11.5869
▁신행정수도	-11.5869
▁옮겼다	-11.5869
▁재결합	-11.5869
▁조류독감	-11.5869
▁지켰다	-11.5869
▁찍힌	-11.5869
▁컸다	-11.5869
▁퀘벡	-11.5869
▁핵연료	-11.5869
▁햇볕	-11.5869
▁현수막	-11.5869
▁황교수	-11.5869
▁흑자	-11.5869
캇	-11.5869
▁가석방	-11.5869
▁푸에르타	-11.5869
▁황박사	-11.5869
넥	-11.5869
▁Center	-11.5869
▁have	-11.5869
▁내보냈다	-11.5869
▁마스터스	-11.5869
▁본거지	-11.5869
▁나뉘어	-11.5869
▁흥정	-11.5869
▁개구리	-11.5869
▁대운하	-11.5869
▁중질유	-11.5869
▁하드웨어	-11.5869
▁산체스	-11.5869
▁함부르크	-11.5869
▁다둘라	-11.5869
▁남동쪽	-11.5869
▁버크헤드	-11.5869
▁핀란드	-11.5869
▁갖춰	-11.5869
▁다저스	-11.5869
▁셰퍼드	-11.5869
▁자위대	-11.5869
▁주니어	-11.5869
▁핑크	-11.5869
▁어렸을	-11.5869
▁under	-11.5869
▁남서쪽	-11.5869
▁원내대표	-11.5869
▁액체	-11.5869
▁사형선고	-11.5869
▁소아과	-11.5869
(36)	-11.5869
▁카펫	-11.5869
▁진짜	-11.5869
▁강원도	-11.5869
▁정착촌	-11.5869
▁물러났다	-11.5869
▁하이킹	-11.5869
▁떠오르	-11.5869
▁블레이크	-11.5869
▁통합민주당	-11.5869
(26)	-11.5869
(31)	-11.5869
▁가르시아	-11.5869
▁출혈	-11.5869
▁휴이트	-11.5869
▁연못	-11.587
▁want	-11.587
ress	-11.587
▁기다렸다	-11.587
▁도망쳤다	-11.587
▁과잉	-11.587
▁독특	-11.587
▁빠져나가	-11.587
▁거세지	-11.587
▁않으려	-11.587
▁레빈슨	-11.587
▁출항	-11.587
▁체첸	-11.587
▁항구도시	-11.587
▁식별	-11.587
▁유대교	-11.587
▁잠자리	-11.587
▁쉽다	-11.587
▁오스만	-11.5871
▁궁금	-11.5871
▁벌어질	-11.5871
▁크랜	-11.5871
▁창업자	-11.5871
▁군복무	-11.5871
▁빙산	-11.5871
▁어워드	-11.5872
▁프라임	-11.5872
▁cont	-11.5872
▁예상됩니다	-11.5872
▁조세프	-11.5872
▁may	-11.5872
▁관례	-11.5872
▁내놓았다	-11.5872
▁뒤이어	-11.5873
▁매도	-11.5873
▁닉슨	-11.5873
▁우익	-11.5873
▁돌풍	-11.5873
▁로비스트	-11.5873
▁요구사항	-11.5873
▁중심부에	-11.5873
▁고아원	-11.5874
▁진열	-11.5874
▁죽고	-11.5874
▁엔론	-11.5874
▁최후	-11.5874
▁통신망	-11.5874
▁프린트	-11.5874
▁감각	-11.5874
▁마스크	-11.5875
▁도로변	-11.5875
▁축복	-11.5875
▁우편	-11.5875
▁아흐메드	-11.5875
▁샤리아	-11.5876
▁뭉	-11.5876
▁연봉	-11.5876
▁소방차	-11.5876
ition	-11.5877
▁올라왔다	-11.5877
973	-11.5877
▁익사	-11.5877
▁주먹	-11.5877
▁이어갔다	-11.5878
▁소년병	-11.5878
▁과속	-11.5878
▁법령	-11.5878
우며	-11.5879
▁교도통신	-11.588
▁어디서	-11.588
▁조사결과	-11.588
▁제왕	-11.5881
▁최장	-11.5882
▁완수	-11.5882
▁면제	-11.5882
▁과감	-11.5882
▁선언문	-11.5882
▁매사추세츠주	-11.5883
▁사라질	-11.5883
▁버려진	-11.5883
▁드물	-11.5884
▁해리슨	-11.5884
▁진동	-11.5884
▁비틀	-11.5884
▁안된다	-11.5886
▁소유즈	-11.5886
▁남긴	-11.5887
▁브라이언트	-11.5887
▁737	-11.5887
▁경감	-11.5888
작품	-11.5888
▁굽	-11.5888
▁않을까	-11.5888
▁줄리아	-11.5888
▁흔들었다	-11.5889
▁마샤	-11.5889
▁비스타	-11.589
▁인수위원회	-11.589
▁끝이	-11.5891
▁의장직	-11.5891
▁콜로라도주	-11.5893
▁발령했다	-11.5893
▁망치	-11.5893
▁빨간	-11.5894
▁감당	-11.5894
▁진척	-11.5894
▁사립	-11.5894
▁발레리	-11.5895
▁수사팀	-11.5896
▁정부기관	-11.5896
▁No	-11.5897
▁설립했다	-11.5897
▁쿠즈	-11.5897
▁파워	-11.5897
▁살리기	-11.5898
▁주관	-11.5899
▁다행	-11.59
▁소포	-11.59
▁1930	-11.59
▁WWF	-11.59
▁결선	-11.5901
▁힐러리경	-11.5901
▁지상군	-11.5902
▁골든	-11.5902
▁희생된	-11.5903
명이었다	-11.5904
▁기자실	-11.5904
▁4500	-11.5905
▁상임	-11.5907
74	-11.5909
▁통역	-11.5909
▁않았었다	-11.5911
ious	-11.5912
▁거행	-11.5912
▁가루	-11.5913
atch	-11.5914
▁거울	-11.5914
▁추억	-11.5915
▁다리에	-11.5916
▁전인대	-11.5917
▁공적	-11.5917
▁레이드	-11.5917
▁압도적으로	-11.5918
▁손길	-11.5919
▁어미	-11.5919
▁맞지	-11.592
▁포즈	-11.592
▁총력	-11.592
▁전념	-11.5923
▁주범	-11.5924
왔으며	-11.5924
▁들소	-11.5924
▁은신	-11.5925
▁카카	-11.5926
▁토드	-11.5926
지금	-11.5927
▁위원회에	-11.5927
mer	-11.5928
▁부패혐의	-11.5928
▁추종자들	-11.5931
▁남부지역	-11.5931
▁허가했다	-11.5933
ern	-11.5934
▁군용	-11.5934
▁준결승전에서	-11.5934
▁게시	-11.5935
▁우표	-11.5936
▁해역	-11.5936
▁목표물	-11.5937
▁친부	-11.5937
▁분개	-11.5937
▁말라위	-11.5937
▁주말까지	-11.5941
▁버드	-11.5942
▁보잉사	-11.5944
호선	-11.5945
ock	-11.5945
▁off	-11.5947
▁갖지	-11.5947
▁최다	-11.5954
▁버린	-11.5954
▁관세	-11.5956
▁예상치	-11.596
내지	-11.5962
▁WFP	-11.5963
▁육지	-11.5964
▁작동되	-11.5964
▁명명	-11.5967
▁끝나기	-11.5968
세르	-11.5969
▁나노	-11.5969
▁시청자	-11.5971
▁산책로	-11.5972
▁방사	-11.5975
▁수행하는	-11.5977
▁집어	-11.5985
▁사우	-11.5986
▁신중한	-11.5987
▁효과적	-11.5989
▁수잔	-11.599
▁직원들에게	-11.5991
▁복도	-11.5993
▁바란다며	-11.5994
Pro	-11.5996
▁급락했다	-11.5997
▁근본적	-11.5999
▁랄	-11.5999
▁못하다고	-11.6
▁국경지역에서	-11.6002
▁본회의	-11.6006
▁보니	-11.6007
▁모닝	-11.6009
low	-11.6014
▁ISS	-11.6014
▁만들어내	-11.6014
▁발사됐다	-11.6016
▁다닐	-11.6018
▁지냈다	-11.6019
▁적게	-11.602
▁이라크인들	-11.6022
▁신뢰할	-11.6027
보트	-11.6029
▁무대에	-11.6031
▁서울시장	-11.6031
▁전당	-11.6035
▁확정됐다	-11.6036
▁분명한	-11.6038
▁센터에	-11.6038
▁AU	-11.6038
▁7.9	-11.6039
▁107	-11.604
▁칩	-11.604
▁정당은	-11.6043
▁등정	-11.6044
▁수행한	-11.6046
▁센터에서	-11.6046
▁집계됐다	-11.6046
▁자카르타에서	-11.6046
▁신뢰도	-11.6046
▁미트	-11.6047
▁애플사	-11.6048
당시	-11.6049
▁정상회담에	-11.6049
▁쓰인	-11.6049
▁보내며	-11.6053
▁주석이	-11.6054
미군	-11.6056
▁남동부에서	-11.6058
▁두번째로	-11.6059
▁하우스	-11.606
▁조상	-11.6061
방향	-11.6062
▁통상적	-11.6066
▁들며	-11.6066
▁생물학적	-11.6068
▁3.5	-11.6069
▁주인공인	-11.607
백만명	-11.6073
▁시행되	-11.6073
▁설립한	-11.6073
USS	-11.6074
▁이끌어내	-11.608
▁진행하는	-11.608
▁대응할	-11.6087
▁폐쇄하기	-11.6092
▁앤드	-11.6095
▁거래되	-11.6098
▁해왔	-11.61
▁타지	-11.6101
▁연주자	-11.6102
▁가져가	-11.6103
▁매력적	-11.6103
▁결정하기	-11.6104
▁신청했다	-11.6105
전화	-11.6106
토리	-11.6108
▁죽음이	-11.6116
▁남쪽에	-11.6117
▁통과시키	-11.6122
▁정권에	-11.6123
▁방송과	-11.6124
▁경쟁에서	-11.6126
노프	-11.6127
▁Mi	-11.6127
▁한가지	-11.6127
▁착용한	-11.6128
▁존재하	-11.6128
▁라벨	-11.613
▁대변	-11.613
▁이들과	-11.6138
▁사원에	-11.6139
KO	-11.614
란드	-11.614
▁대위	-11.6141
▁신체적	-11.6144
▁장착한	-11.6145
▁간부들	-11.6146
▁토론회에	-11.6148
US	-11.6149
▁거부할	-11.6151
▁국제적으로	-11.6153
▁부분에서	-11.6154
har	-11.6157
▁적었다	-11.616
sh	-11.616
▁초기에	-11.6164
▁타계했다	-11.6165
적당한	-11.6174
▁해결하는	-11.6176
계약	-11.6177
92	-11.6178
▁적어	-11.618
▁실험에	-11.6181
▁조직원들	-11.6182
▁물자	-11.6189
일쯤	-11.619
할때	-11.6193
▁자백했다	-11.6196
,400	-11.6203
▁노인들	-11.6205
▁생기는	-11.621
▁움직	-11.621
▁수용소에	-11.6217
▁진정시키	-11.6218
▁이어져	-11.6218
▁다운	-11.6225
▁보자	-11.6228
▁고가	-11.6229
▁상승하고	-11.6229
▁전경	-11.6229
▁친구들은	-11.6236
▁부각	-11.6249
▁살해하고	-11.625
▁없었고	-11.6255
▁않았기	-11.6255
▁희생됐다	-11.6256
▁샌프란시스코에서	-11.6263
▁일본군	-11.6267
▁타계	-11.6267
▁넘었다	-11.627
▁흐	-11.6273
▁주어진	-11.628
▁84	-11.6283
ral	-11.6291
▁미미	-11.6299
▁lea	-11.6299
▁동물원에서	-11.6301
만대	-11.6302
수익	-11.6311
▁강화된	-11.6312
▁오르지	-11.6314
▁있었	-11.6326
AI	-11.6334
94	-11.6334
▁임명됐다	-11.6335
▁되는데	-11.6338
▁희	-11.6343
사무소	-11.6343
축구	-11.6346
NATO	-11.6346
▁스티	-11.6346
밴드	-11.6347
▁사고기	-11.6347
빅	-11.6347
시리즈	-11.6347
뒤	-11.6348
뉴욕	-11.6349
오픈	-11.6349
▁근본	-11.6349
검찰	-11.6349
하우스	-11.6351
▁등장하	-11.6357
동식	-11.636
▁드리	-11.6361
업무	-11.6361
득점	-11.6363
▁사나	-11.6366
▁리스트	-11.6368
조합	-11.6368
▁맞붙	-11.637
▁패했다	-11.6376
▁외국인들이	-11.6379
매우	-11.6382
▁졸	-11.6386
▁요청으로	-11.6387
▁혁신적	-11.6398
▁빠졌	-11.6402
▁플로리다에	-11.641
▁본인	-11.6414
▁말하	-11.6417
론자들	-11.6418
▁별장	-11.6421
▁전해진	-11.6421
▁참석한다	-11.6425
▁되었	-11.6426
▁이재민들	-11.6428
▁극적	-11.6429
능력	-11.6429
▁상점들	-11.6432
▁tr	-11.6437
▁메인	-11.6438
▁루시	-11.6443
▁위반했다	-11.6444
운영	-11.6445
▁순례	-11.6453
나요	-11.6453
▁회피	-11.6455
▁cl	-11.6458
리언	-11.6464
▁스타디움	-11.647
▁상징으로	-11.6473
▁종식시키	-11.6474
그너	-11.6482
▁마련해	-11.6483
up	-11.6484
▁공원에	-11.6486
컷	-11.6501
▁창고	-11.6501
▁자랑하	-11.6502
▁FC	-11.6504
▁허용했다	-11.6505
1945	-11.6506
학자들	-11.6508
▁3.3	-11.651
▁계열	-11.6514
타카	-11.6517
하면서도	-11.6519
▁인종적	-11.6521
▁보이기	-11.6526
회사들	-11.653
흥	-11.653
▁딸들	-11.6533
륜	-11.6533
돔	-11.6535
닷	-11.6535
뮤	-11.6535
툰	-11.6535
life	-11.6535
▁200809.0	-11.6535
▁BBK	-11.6535
▁DAX	-11.6535
▁GNP	-11.6535
▁HSBC	-11.6535
▁Minister	-11.6535
▁RCTV	-11.6535
▁UMP	-11.6535
▁가솔린	-11.6535
▁고르바초프	-11.6535
▁괴물	-11.6535
▁구소련	-11.6535
▁국제영화제	-11.6535
▁끊겼	-11.6535
▁니스텔로이	-11.6535
▁동성결혼	-11.6535
▁디스플레이	-11.6535
▁떠올랐다	-11.6535
▁멜버른	-11.6535
▁불러일으켰다	-11.6535
▁브뤼셀	-11.6535
▁사이언톨로지	-11.6535
▁생태계	-11.6535
▁슈퍼마켓	-11.6535
▁스프레이	-11.6535
▁스필버그	-11.6535
▁시에라리온	-11.6535
▁아디다스	-11.6535
▁아프카니스탄	-11.6535
▁아흐마디네자드	-11.6535
▁알카티리	-11.6535
▁여중생	-11.6535
▁올바른	-11.6535
▁위태롭게	-11.6535
▁윌리암	-11.6535
▁이바노비치	-11.6535
▁제퍼슨	-11.6535
▁출퇴근	-11.6535
▁칼데론	-11.6535
▁컨퍼런스	-11.6535
▁타임스퀘어	-11.6535
▁혹등고래	-11.6535
팡	-11.6535
ISAF	-11.6535
break	-11.6535
▁WASHINGTON	-11.6535
▁start	-11.6535
▁금융제재	-11.6535
▁남겨두고	-11.6535
▁매몰된	-11.6535
▁민주노동당	-11.6535
▁영업이익	-11.6535
▁정보통신부	-11.6535
▁쿼터백	-11.6535
띤	-11.6535
▁깁슨	-11.6535
▁보스니아	-11.6535
▁영사관	-11.6535
▁자페타	-11.6535
▁재경부	-11.6535
▁헬만드	-11.6535
▁섭씨	-11.6535
▁캐롤라인	-11.6535
▁로드맵	-11.6535
▁원동력	-11.6535
▁인디언	-11.6535
▁카펠로	-11.6535
▁앗아	-11.6535
▁로드아일랜드	-11.6535
▁예정이었으나	-11.6535
▁깁스	-11.6535
▁Time	-11.6535
▁메모리	-11.6535
▁산악지대	-11.6536
▁정찰위성	-11.6536
▁징조	-11.6536
ould	-11.6536
▁산시성	-11.6536
▁말리부	-11.6536
▁뉴잉글랜드	-11.6536
▁게놈	-11.6536
▁사진작가	-11.6536
▁전비법안	-11.6536
풋볼	-11.6536
▁즐겁	-11.6536
▁좌익	-11.6536
▁show	-11.6536
▁특혜	-11.6536
▁슬픈	-11.6536
▁심장질환	-11.6536
▁궁극적으로	-11.6536
이건희	-11.6536
▁당뇨병	-11.6536
▁압델	-11.6536
▁클릭	-11.6536
▁룰라	-11.6536
▁로얄	-11.6536
▁노던록	-11.6536
▁볼드윈	-11.6537
1983	-11.6537
▁화폐	-11.6537
▁게시판	-11.6537
▁부활절	-11.6537
▁승부차기	-11.6537
▁디즈니랜드	-11.6537
▁놓여있다	-11.6537
▁날카로	-11.6537
▁차량폭탄	-11.6537
▁도미니카	-11.6537
▁FAA	-11.6537
▁Lee	-11.6537
▁콜롬보	-11.6537
▁스튜	-11.6537
▁형벌	-11.6538
▁비춰	-11.6538
▁잠비아	-11.6538
▁출처	-11.6538
▁플루	-11.6538
party	-11.6538
▁쏟아져	-11.6538
▁제이슨	-11.6538
▁정회장	-11.6539
▁잠겨	-11.6539
▁우주여행	-11.6539
▁계승	-11.6539
▁무장조직	-11.654
▁유대인들	-11.654
▁윈터	-11.654
▁적합하	-11.654
▁위헌	-11.654
▁들어올	-11.654
ext	-11.654
▁완구	-11.6541
▁금융기관	-11.6541
▁애완용	-11.6541
▁연합정부	-11.6542
▁기네스	-11.6542
▁찰리	-11.6542
▁코웰	-11.6542
▁오닐	-11.6542
▁레빈	-11.6542
▁인텔	-11.6542
▁머무르	-11.6543
▁알이슬람	-11.6543
▁흠	-11.6543
▁의논	-11.6543
▁켄트	-11.6544
드레	-11.6544
▁기원전	-11.6544
▁단언	-11.6544
▁LO	-11.6544
▁통과된	-11.6544
▁사무국	-11.6544
▁법규	-11.6544
▁저격	-11.6545
▁누출	-11.6545
▁꺼내	-11.6545
▁훔쳐	-11.6545
▁골절	-11.6546
▁샤론	-11.6546
▁단편	-11.6546
▁지칭	-11.6546
▁접종	-11.6547
▁아델	-11.6547
▁할렘	-11.6547
▁버리고	-11.6547
▁거래에서	-11.6547
▁분양	-11.6548
▁진심	-11.6549
▁신랑	-11.6549
▁감동	-11.6549
▁과연	-11.6549
▁천연	-11.6549
▁바이오	-11.655
▁강탈	-11.655
▁개체	-11.655
▁한국전쟁	-11.655
▁질식	-11.6551
▁감안	-11.6551
▁종사하	-11.6552
▁카렌	-11.6553
▁최적	-11.6553
▁가장자리	-11.6553
▁테마	-11.6554
하였고	-11.6555
▁미시간주	-11.6555
▁솜	-11.6556
▁PS	-11.6556
▁격전	-11.6556
▁로키	-11.6556
▁투여	-11.6556
▁구제금융안	-11.6557
▁고층	-11.6557
▁테디	-11.6557
▁생길	-11.6557
▁그런데	-11.6558
심리	-11.656
▁부주의	-11.656
▁조장하	-11.656
▁테크	-11.656
▁토티	-11.6562
▁이윤	-11.6562
▁개통	-11.6562
▁난방	-11.6562
▁정당화	-11.6563
▁악수	-11.6563
▁유실	-11.6563
▁건축물	-11.6564
▁해커	-11.6564
▁요구한다	-11.6565
▁변호인단	-11.6566
▁원한다면	-11.6566
▁측에서는	-11.6568
▁소방당국	-11.6569
▁싶다면	-11.657
▁노력했다	-11.657
▁다량	-11.6574
▁사료	-11.6574
▁들려	-11.6574
▁크로스	-11.6574
▁성실	-11.6574
▁합의에따라	-11.6575
▁아이오와주	-11.6575
펠드	-11.6576
▁끌어들이	-11.6577
▁지지해	-11.6578
▁인용하여	-11.6579
▁부친	-11.6579
▁상속	-11.658
▁관여하	-11.6581
▁도피	-11.6581
▁돌파구	-11.6582
▁제작진	-11.6582
▁설사	-11.6582
▁북극해	-11.6584
▁이르다	-11.6585
▁내외	-11.6586
▁어조	-11.6587
▁저하	-11.6588
▁바탕으로	-11.6593
reat	-11.6594
▁가혹한	-11.6596
▁온실	-11.6596
▁원형	-11.6596
▁재개했다	-11.6596
▁호건	-11.6597
▁심리학	-11.6597
▁개제	-11.6599
▁사유	-11.6599
▁불행한	-11.66
▁한반도에	-11.6603
▁문학	-11.6603
▁유발할	-11.6606
▁마신	-11.6608
▁동점	-11.6611
▁의거	-11.6612
▁제마	-11.6612
됐음	-11.6613
▁글로리	-11.6613
▁신선	-11.6613
▁천장	-11.6613
▁합쳐	-11.6614
▁우주복	-11.6614
▁요리사	-11.6615
▁섬에서	-11.6615
▁화면에	-11.6615
▁손잡	-11.6616
▁인종차별	-11.6617
.09	-11.6618
▁강조하고	-11.6618
▁나포	-11.6619
▁사라져	-11.6619
▁마오	-11.6621
▁매진	-11.6622
▁서구	-11.6622
▁대표와	-11.6622
▁리자	-11.6624
▁반대파	-11.6625
▁심리적	-11.6627
▁국회의장	-11.6628
▁기용	-11.6629
▁종업원	-11.6629
▁등교	-11.6632
벨라	-11.6632
▁꼬	-11.6633
▁정찰기	-11.6634
▁0.7	-11.6634
▁유학	-11.6636
비안	-11.6636
▁딱	-11.6637
▁지었다	-11.6641
▁구조물	-11.6641
▁효율	-11.6642
▁di	-11.6645
▁보내졌다	-11.6647
▁수영장	-11.6648
▁밝혀지	-11.6648
▁반대하며	-11.6649
▁이제까지	-11.665
▁라드	-11.665
▁부대변인	-11.665
▁체스	-11.6651
▁쓰지	-11.6654
▁교류	-11.6656
▁승리해야	-11.6657
▁숨어	-11.6658
▁결혼한	-11.6662
▁head	-11.6665
문제에	-11.6666
▁양곤에서	-11.6671
ash	-11.6675
▁음와	-11.6675
▁왔었다	-11.6676
▁겁	-11.6677
▁스트리트	-11.6678
▁컬	-11.6678
▁운동화	-11.6681
▁앞서서	-11.6689
▁축하하기	-11.669
바드	-11.6691
하느냐	-11.6694
▁영국으로부터	-11.6697
▁한국계	-11.6699
▁지역구	-11.6699
▁양식	-11.6703
▁추락해	-11.6703
▁축출된	-11.6715
▁때문이	-11.6715
▁구사	-11.6716
▁수염	-11.6717
▁에바	-11.6717
▁관여한	-11.6719
▁여자친구와	-11.6723
▁수송기	-11.6724
▁정국	-11.6727
판사	-11.6731
부장	-11.6733
▁됐고	-11.6733
▁mor	-11.6734
ness	-11.6735
▁치료제	-11.6739
▁워싱턴주	-11.674
▁이사장	-11.674
▁농부들	-11.6742
폴리스	-11.6743
▁초까지	-11.6744
▁영화관	-11.6747
▁PA	-11.6748
▁행한	-11.6756
▁지도부와	-11.6757
03	-11.6757
▁발표되었다	-11.6764
▁결정적	-11.6767
▁케인	-11.6768
내려	-11.6769
▁사령관이	-11.6772
▁통제하고	-11.6775
▁키트	-11.6777
▁신자들	-11.6782
공학	-11.6782
▁진압하기	-11.6786
▁않았다면	-11.6787
▁알아내	-11.6791
▁중단해야	-11.6793
bal	-11.6794
▁부위에	-11.6797
▁히스	-11.6798
▁신씨	-11.6798
▁선거전	-11.6798
▁지원자	-11.68
메이어	-11.6802
▁나빠	-11.6802
▁측근들	-11.6804
▁성대	-11.6808
▁메카	-11.6808
타스	-11.6808
신고서	-11.681
▁주도하고	-11.6812
▁아타	-11.6812
▁청장	-11.6814
▁전사들	-11.6814
▁맞이했다	-11.6814
▁사육사들	-11.682
▁져야	-11.6821
▁웬	-11.6823
▁정보원	-11.6825
▁심리학자	-11.6827
러진	-11.6828
▁보내지	-11.6829
▁기기	-11.6831
▁설립된	-11.6834
▁선출됐다	-11.6842
▁선호하	-11.6845
▁목록에	-11.6848
▁휴대폰으로	-11.6848
▁보도된	-11.6854
▁사무실에	-11.6854
▁목적지	-11.6855
건설	-11.6859
▁기술자들	-11.687
▁여러분이	-11.687
▁바비	-11.6871
▁시드니에서	-11.6871
▁미안	-11.6874
▁여명	-11.6879
iz	-11.688
▁예루살렘에서	-11.6883
▁제기되	-11.6886
▁하나였다	-11.6889
lar	-11.6889
▁전임	-11.6889
▁떨어뜨	-11.6895
▁다나	-11.6897
▁북쪽에	-11.6899
▁저자	-11.6901
▁하에서	-11.691
pa	-11.6911
▁안된	-11.6915
용품	-11.6915
▁환자에게	-11.6918
▁감소하고	-11.6922
포르	-11.6922
▁교장	-11.6929
▁집권한	-11.6934
▁부장	-11.6944
▁올라와	-11.6945
▁현대적	-11.6945
▁실시하고	-11.6948
▁걸스	-11.6954
▁이후에도	-11.6955
▁스페인에서	-11.6957
▁치료하는	-11.6957
time	-11.6961
▁느끼지	-11.6963
▁1.2	-11.6966
son	-11.6969
▁변호사와	-11.697
▁경찰들은	-11.6971
었었다	-11.6975
릭스	-11.6975
신원	-11.6978
▁간주되	-11.698
▁월드컵에서	-11.698
▁아스	-11.6982
꾼들	-11.6984
▁Tr	-11.6986
▁대변하	-11.6989
선박	-11.6992
▁유가족들	-11.7005
끈	-11.7009
▁벌이다	-11.701
▁1.8	-11.7014
▁고심	-11.7017
졸	-11.7024
ps	-11.7029
▁독자적	-11.7052
▁제국	-11.7056
칩	-11.7057
WTO	-11.7058
▁위안	-11.706
쥐	-11.7061
FTA	-11.7062
FARC	-11.7062
▁상인들	-11.7062
큰	-11.7063
또	-11.7063
화씨	-11.7067
▁연맹	-11.7069
이어서	-11.707
현재	-11.7074
▁침대에	-11.7081
▁해당한다	-11.7083
워터	-11.7085
▁생산된	-11.7086
에너지	-11.7089
▁아사	-11.7091
하락	-11.7091
▁프레이	-11.7093
▁생각되	-11.7098
연소	-11.7099
▁관중들	-11.71
▁어기	-11.7104
▁곤경에	-11.7105
▁살기	-11.7106
▁급증했다	-11.7106
금치	-11.7106
▁당혹	-11.7107
▁조직위	-11.7109
▁막지	-11.7111
▁권장	-11.7111
집회	-11.7112
▁관리들과	-11.7113
▁인권단체들	-11.7116
▁해변에	-11.7117
▁국민과	-11.7118
▁지불했다	-11.7118
스텔	-11.7124
환자	-11.7124
관리국	-11.7131
▁135	-11.7132
▁매장에서	-11.7132
▁전반에	-11.7133
▁한파	-11.7137
▁휘트	-11.7139
▁거점	-11.7145
▁연구하는	-11.7152
▁조사관들	-11.7152
▁추산	-11.7156
▁아프간군	-11.7156
▁눈으로	-11.7165
▁쫓겨	-11.7175
▁145	-11.7176
▁에르	-11.7178
▁경쟁자들	-11.7178
▁투표했다	-11.718
▁2.4	-11.7184
륙	-11.7188
아갈	-11.719
▁설명할	-11.719
▁청년들	-11.719
▁아파트에	-11.7192
▁자리잡	-11.7192
▁경신	-11.7193
아주	-11.7199
▁거뒀	-11.7205
▁서울과	-11.7205
▁구사하	-11.7205
ook	-11.7209
▁직원인	-11.7214
▁로마에서	-11.7215
▁알려왔	-11.7218
▁America	-11.7219
▁고도	-11.7225
요리	-11.7228
nam	-11.7229
▁던졌	-11.7229
▁미시건	-11.7234
▁브랜	-11.7236
▁기념하	-11.7239
▁떠올	-11.7239
▁91	-11.7241
▁그래미	-11.7242
둬	-11.7246
슐	-11.7246
▁숙박	-11.7247
▁kill	-11.7248
▁부모님	-11.7248
코드	-11.7248
봇	-11.7249
PGA	-11.7249
▁CAC	-11.725
▁NHC	-11.725
▁arrest	-11.725
▁갤러리	-11.725
▁건강검진	-11.725
▁깨달았다	-11.725
▁대량살상무기	-11.725
▁리우데자네이루	-11.725
▁멤피스	-11.725
▁몰랐다	-11.725
▁버클리	-11.725
▁볼티모어	-11.725
▁앵커	-11.725
▁유네스코	-11.725
▁쿠즈넷소바	-11.725
▁티크리트	-11.725
▁포괄적	-11.725
▁포유류	-11.725
▁플레이스테이션	-11.725
▁휠체어	-11.725
뚜	-11.725
쟈	-11.725
쥬	-11.725
8,000	-11.725
EADS	-11.725
ject	-11.725
▁Life	-11.725
▁걷기	-11.725
▁국가평의회	-11.725
▁국제올림픽위원회	-11.725
▁대검찰청	-11.725
▁듣게	-11.725
▁만토바니	-11.725
▁매카트니	-11.725
▁머물렀다	-11.725
▁무기징역	-11.725
▁발렌시아	-11.725
▁방코델타아시아	-11.725
▁배트맨	-11.725
▁밸리	-11.725
▁버틀러	-11.725
▁베스트셀러	-11.725
▁불공정	-11.725
▁블래터	-11.725
▁서둘러	-11.725
▁스즈키	-11.725
▁울프위츠	-11.725
▁유엔사무총장	-11.725
▁이데올로기	-11.725
▁찍어	-11.725
▁츠방기라이	-11.725
▁햇빛	-11.725
▁화성탐사	-11.725
▁흡입	-11.725
랏	-11.725
시켰으며	-11.725
펙	-11.725
(57)	-11.725
OMX	-11.725
ZANUPF	-11.725
▁로날드	-11.725
▁부동층	-11.725
▁인공심장	-11.725
▁크라이튼	-11.725
▁퇴근	-11.725
▁파딜라	-11.725
▁현기증	-11.725
샨	-11.725
▁다이어트	-11.725
▁딜런	-11.725
▁아메바	-11.725
▁냉장고	-11.725
▁즐긴다	-11.725
▁메이도프	-11.725
▁서두르	-11.725
▁사로잡	-11.725
▁하니야	-11.725
▁대성당	-11.725
▁금리인하	-11.725
▁오페라	-11.725
▁가오리	-11.725
▁tax	-11.725
▁고등학생	-11.725
솔직히	-11.725
▁수수료	-11.725
스타워즈	-11.725
▁반짝이	-11.725
▁강대국	-11.725
(38)	-11.725
(61)	-11.725
▁[[	-11.725
▁구제금융법안	-11.725
▁때때로	-11.725
▁바시르	-11.725
▁북아일랜드	-11.725
▁이스마일	-11.725
▁쓰러진	-11.725
▁희귀	-11.725
▁어쩔	-11.725
으므로	-11.725
▁모토로라	-11.725
▁히잡	-11.725
도날드	-11.725
▁욕구	-11.725
▁참혹	-11.725
▁마스리	-11.725
▁국영언론	-11.725
▁남태평양	-11.725
▁노동조합	-11.725
▁그리핀	-11.725
▁벗겨	-11.7251
▁출근	-11.7251
▁옐로	-11.7251
슬라브	-11.7251
▁용암	-11.7251
(40)	-11.7251
▁인내심	-11.7251
▁아름다움	-11.7251
▁랜디	-11.7251
▁물리학자	-11.7251
▁슈렉	-11.7251
▁목욕	-11.7252
▁신흥	-11.7252
▁돌봐	-11.7252
▁탑재	-11.7252
▁압류	-11.7252
▁재건축	-11.7252
umb	-11.7252
▁홈경기	-11.7252
▁총파업	-11.7252
▁리옹	-11.7252
▁일기장	-11.7253
▁재처리	-11.7253
▁헤엄	-11.7253
▁멜론	-11.7253
▁입후보	-11.7253
▁솔직하	-11.7253
▁매도프	-11.7253
▁좁혀	-11.7253
▁있냐	-11.7253
▁나눈	-11.7253
▁폐허	-11.7253
▁대리모	-11.7254
▁스노우	-11.7254
기동대	-11.7254
▁사형제도	-11.7254
▁철강	-11.7254
층짜리	-11.7254
▁근절	-11.7254
▁싸워	-11.7254
▁숙박비	-11.7255
▁검역	-11.7255
▁교각	-11.7255
▁놀란	-11.7255
▁러브	-11.7255
▁집값	-11.7255
▁아프리카연합	-11.7255
▁신기록	-11.7256
▁대국민	-11.7256
▁에베레스트산	-11.7256
▁자궁	-11.7256
▁계급	-11.7256
▁혼인	-11.7256
▁기차역	-11.7256
▁종교단체	-11.7256
▁로열	-11.7257
light	-11.7257
▁제휴	-11.7257
▁루시디	-11.7257
▁하렐	-11.7257
▁카타르	-11.7257
▁마쓰	-11.7257
▁생생	-11.7257
▁로빈슨	-11.7257
▁피켓	-11.7258
▁불법행위	-11.7258
▁정황	-11.7258
▁종목	-11.7258
▁JP	-11.7258
▁증파	-11.7259
▁조롱	-11.7259
▁오웬	-11.7259
▁돌렸다	-11.7259
▁투자은행	-11.7259
▁없다면	-11.726
▁데이브	-11.726
▁관통	-11.726
▁소녀들	-11.726
▁해산시키기	-11.726
▁설전	-11.726
▁오디오	-11.7261
▁대기권	-11.7262
▁지명되기	-11.7262
▁담요	-11.7262
▁바이든	-11.7262
▁견제	-11.7262
▁언니	-11.7262
▁야심	-11.7263
▁넘긴	-11.7263
▁열광	-11.7264
▁메인주	-11.7264
▁가져야	-11.7264
EL	-11.7264
▁플래시	-11.7264
▁집결	-11.7264
▁사귀	-11.7265
▁시몬	-11.7266
▁야채	-11.7266
▁왕관	-11.7266
▁로렌스	-11.7266
▁허브	-11.7267
▁황소	-11.7267
▁변종	-11.7267
▁제약회사	-11.7268
▁어류	-11.7269
▁hit	-11.7269
▁기대감	-11.7269
▁국무회의	-11.7269
▁유영	-11.7269
▁오델	-11.7271
▁배아줄기세포	-11.7272
▁시드르	-11.7273
▁다름	-11.7274
▁스파이스	-11.7274
▁느낌이	-11.7274
▁피지	-11.7276
▁영하	-11.7276
▁유타주	-11.7276
▁예금	-11.7276
▁팬더	-11.7277
▁표결에	-11.7277
▁자체적으로	-11.728
▁시립	-11.728
▁점유	-11.728
▁해골	-11.7281
▁나빠지	-11.7282
▁공동체	-11.7282
▁증대	-11.7282
▁영국항공	-11.7284
▁돌아보	-11.7284
▁커뮤니케이션	-11.7286
▁파이낸셜	-11.7286
▁탐지기	-11.7286
다시피	-11.7287
▁애리조나주	-11.7287
▁살아있다	-11.7287
▁반사	-11.7287
▁애정	-11.7288
▁진술서	-11.7288
▁결성	-11.729
▁그레이스	-11.729
two	-11.7291
▁주장했었다	-11.7292
▁이맘	-11.7292
▁건전	-11.7293
▁무거	-11.7293
▁구멍이	-11.7296
▁경계선	-11.7296
만파운드	-11.7298
▁여러차례	-11.7298
여건	-11.7298
▁소비자들에게	-11.7299
▁시신들	-11.7299
▁왕비	-11.7299
▁부의장	-11.7301
▁주의보	-11.7301
▁외신	-11.7302
▁총리실	-11.7304
▁인내	-11.7304
▁구직	-11.7304
▁계절	-11.7304
▁난관	-11.7304
▁지방법원	-11.7306
FA	-11.7309
▁관용	-11.7309
▁실업자	-11.7309
▁배역	-11.7313
▁당내	-11.7313
▁날려	-11.7314
▁대피시켰다	-11.7314
▁심사위원	-11.7314
▁배치된	-11.7315
▁문화원	-11.7317
▁팔아	-11.7318
▁서점	-11.7318
▁0.4	-11.7318
▁원내	-11.7319
▁주의회	-11.7319
▁월터스	-11.732
▁박탈당	-11.7321
▁기본적으로	-11.7322
▁동력	-11.7324
▁가파	-11.7324
▁시급	-11.7325
▁국제법	-11.7326
▁그럴	-11.7326
DP	-11.7328
▁들어있다	-11.7329
▁숨어있	-11.7329
▁궁전	-11.7329
▁깨진	-11.7329
▁신차	-11.7335
연수	-11.7338
▁고아	-11.734
▁기미	-11.734
▁360	-11.734
레트	-11.7341
▁펜실베이니아주	-11.7342
▁새우	-11.7343
▁Ri	-11.7343
▁상승했으며	-11.7344
▁대통령으로서	-11.7344
▁위력	-11.7345
▁2200	-11.7345
▁고르	-11.7348
▁밝혀져	-11.7348
Ex	-11.735
▁225	-11.7357
▁셈	-11.7359
▁문어	-11.7361
▁제출해야	-11.7362
▁소실됐다	-11.7364
▁음식점	-11.7364
▁실시간	-11.7365
▁매치	-11.7365
▁등장한다	-11.7366
▁선서	-11.7368
▁소치	-11.7368
▁연구자들	-11.737
▁수감돼	-11.7372
▁270	-11.7375
▁공약으로	-11.7376
▁정면	-11.7377
었음	-11.7378
▁놓치	-11.7379
자산	-11.7382
▁에너지부	-11.7385
▁등장했다	-11.7386
▁압력에	-11.7387
▁킴	-11.7388
▁흙	-11.7388
▁모색하고	-11.7389
▁자살했다고	-11.7389
▁정해진	-11.739
▁그리스에서	-11.739
▁책상	-11.739
▁이용자들	-11.739
▁제외됐다	-11.739
▁가능해	-11.7392
▁중위	-11.7393
▁보석으로	-11.7397
▁각료들	-11.7402
▁들어주	-11.7406
▁수출국	-11.7406
▁남북간	-11.741
▁케냐에서	-11.7411
▁가야	-11.7412
▁왕국	-11.7414
▁1300	-11.7416
▁장군이	-11.7418
▁사령부	-11.7418
▁구성했다	-11.7418
▁결승에	-11.7424
▁바꾸기	-11.7427
orn	-11.7428
▁안정화	-11.743
▁입소	-11.743
▁들어있	-11.7431
▁소식으로	-11.7434
▁알기	-11.7439
▁의약	-11.7439
▁크루	-11.7439
▁제시하지	-11.7439
▁철회할	-11.7442
▁명확한	-11.7442
▁분노한	-11.7444
▁클레이	-11.7445
▁사망률	-11.746
어지면서	-11.7461
▁환경에서	-11.7462
▁편집장	-11.7463
▁일당	-11.7466
▁딸에게	-11.7467
▁물리적	-11.7469
▁먹지	-11.7473
▁펼쳐지	-11.7475
▁뷰	-11.7477
▁표현할	-11.748
해주기	-11.748
▁김씨는	-11.748
▁주정부	-11.7484
드미	-11.7486
▁평방	-11.7489
▁건강상	-11.749
▁생물학자	-11.749
▁던지고	-11.7493
▁죽음으로	-11.7495
▁후회	-11.7496
김양	-11.7497
▁기업체	-11.7498
▁사진기자	-11.7508
▁부패와	-11.751
▁에드로	-11.7513
ical	-11.7514
1974	-11.7516
▁레스토랑에서	-11.7517
스펜	-11.7517
▁전해왔	-11.752
▁브라질에서	-11.7523
▁소방대원들	-11.7524
▁누구에게	-11.7524
▁실었다	-11.7525
▁선정했다	-11.7526
▁대표자	-11.7528
▁교수들	-11.753
▁고인	-11.753
▁비난해	-11.7534
▁올랐고	-11.7535
▁반기	-11.7539
▁부르고	-11.7541
ease	-11.7545
▁거절한	-11.7548
▁발견됐	-11.755
▁2006.08	-11.7552
되었는지	-11.7553
데릭	-11.7555
▁때보다	-11.7562
▁거주자	-11.7569
▁보리	-11.7577
담당자	-11.7578
▁6.8	-11.7582
▁2008.12.1	-11.7583
▁베니스	-11.7584
▁다쳤	-11.7585
▁살았다	-11.7609
▁라만	-11.7609
▁확산됐다	-11.761
▁2.7	-11.7611
▁대체로	-11.7612
▁인부	-11.7615
▁먹어	-11.7621
워졌다	-11.7622
▁코드	-11.7623
▁출연할	-11.7627
▁주최한	-11.7634
▁수십만	-11.7638
지난	-11.7638
▁설립자	-11.7649
▁무장괴한들	-11.765
▁비슷하다	-11.7653
▁이민자	-11.767
▁나오기	-11.7674
▁출동했다	-11.768
천여	-11.7683
▁위독	-11.7686
▁바커	-11.7688
▁얻었	-11.7689
AU	-11.7691
▁국가적	-11.7698
▁1,2	-11.7698
물리학	-11.7709
▁압박했다	-11.7713
▁취하기	-11.7716
▁사르	-11.7716
▁파괴되	-11.7717
▁Pa	-11.7721
비트	-11.7725
▁당사자들	-11.7725
bu	-11.7728
▁사장이	-11.7733
ld	-11.7734
▁강타했다	-11.7751
▁Su	-11.7752
▁봉쇄했다	-11.7755
▁증가시키	-11.7755
▁재기	-11.7755
▁것들이	-11.776
▁시도할	-11.7763
▁2.0	-11.7764
▁판매하는	-11.7765
▁제공되	-11.7767
▁노스캐롤라이나에서	-11.7775
있게	-11.7776
ents	-11.7785
▁촉구하고	-11.7788
▁촉진시키	-11.7794
▁전장에	-11.7795
▁모기	-11.7799
NS	-11.7799
변화	-11.7805
▁가방에	-11.7805
▁장악했다	-11.7806
▁모국	-11.781
▁개별	-11.7813
▁배우들	-11.7815
꾸	-11.7822
▁제압하	-11.7825
▁생산되	-11.7825
캔	-11.7826
자키	-11.7827
랩	-11.7827
페이스	-11.7828
2005.1	-11.7828
폭탄	-11.7829
아메리칸	-11.783
끝	-11.7831
랭킹	-11.7831
인터넷	-11.7832
명중	-11.7834
▁추진해	-11.7836
소송	-11.7849
▁상반	-11.7857
대비	-11.7858
공연	-11.7861
버렸	-11.7862
ner	-11.7866
▁정하지	-11.7874
▁연결하	-11.7876
하트	-11.7882
▁악화된	-11.7884
▁착륙했다	-11.7885
소니	-11.7887
▁매리	-11.7887
겠다며	-11.7893
모든	-11.7896
특사	-11.7896
아래	-11.79
ew	-11.7902
▁걸렸	-11.7903
▁집중적	-11.7906
land	-11.7907
요금	-11.7912
▁부과했다	-11.7914
만부	-11.7915
▁극복하	-11.7922
ND	-11.7924
문서	-11.7927
▁조사관	-11.7927
▁변명	-11.793
▁나간다	-11.7935
▁대항하는	-11.7936
ying	-11.7947
▁준결승전	-11.7949
▁팔기	-11.795
룩	-11.7952
군사	-11.7953
▁천문학	-11.7953
상품	-11.7961
▁신기	-11.7961
▁나타냈	-11.7968
▁무차별	-11.7973
▁메디컬	-11.7986
범들	-11.7993
▁북동	-11.8002
▁쫓아	-11.8003
쿠르	-11.8006
▁힘들었	-11.8007
▁준결승	-11.8008
▁일축	-11.8009
티브	-11.8009
▁이송됐으	-11.8009
▁드러냈	-11.8009
▁투데이	-11.8012
▁주차장	-11.8015
홉	-11.8015
븐	-11.8016
▁에어웨이	-11.8016
뇨	-11.8017
얄	-11.8017
옐	-11.8018
쿤	-11.8018
톡	-11.8019
뜰	-11.8019
놔	-11.8019
엉	-11.8019
앵	-11.8019
팽	-11.8019
6,000	-11.8019
SNCF	-11.8019
employ	-11.8019
▁Bank	-11.8019
▁Foreign	-11.8019
▁IRNA	-11.8019
▁White	-11.8019
▁걸림돌	-11.8019
▁공상과학	-11.8019
▁국토안보부	-11.8019
▁기울여야	-11.8019
▁네브라스카	-11.8019
▁다비덴코	-11.8019
▁대니얼	-11.8019
▁드림라이너	-11.8019
▁리트비넨코	-11.8019
▁미식축구	-11.8019
▁믿어지	-11.8019
▁바예스테로스	-11.8019
▁백과사전	-11.8019
▁변함없	-11.8019
▁보궐선거	-11.8019
▁블록버스터	-11.8019
▁빈민층	-11.8019
▁상임이사국	-11.8019
▁샌안토니오	-11.8019
▁아르메니아	-11.8019
▁아름답	-11.8019
▁아쿠아리움	-11.8019
▁엔터프라이즈	-11.8019
▁옥수수	-11.8019
▁옥스포드	-11.8019
▁와코비아	-11.8019
▁인수합병	-11.8019
▁조기총선	-11.8019
▁츠요시	-11.8019
▁캄푸쉬	-11.8019
▁통합러시아당	-11.8019
▁팽팽	-11.8019
▁평화협정	-11.8019
▁프랑수아	-11.8019
▁프랑크푸르트	-11.8019
▁하르툼	-11.8019
▁홍석현	-11.8019
▁확립	-11.8019
▁휴전협정	-11.8019
▁흩어져	-11.8019
▁히스패닉	-11.8019
▁strike	-11.8019
▁나뭇가지	-11.8019
▁밀라노	-11.8019
▁인신매매	-11.8019
▁파키스탄인민당	-11.8019
▁펠릭스	-11.8019
옌	-11.8019
▁갱단	-11.8019
▁에버튼	-11.8019
▁여기저기	-11.8019
▁잠수함	-11.8019
▁테러리즘	-11.8019
▁1972	-11.8019
▁구속영장	-11.8019
▁맞먹는	-11.8019
▁트레일러	-11.8019
어느때보다	-11.8019
▁상무부	-11.8019
▁알메이다	-11.8019
▁타디치	-11.8019
▁곤봉	-11.8019
▁돌려보내	-11.8019
▁사무차장	-11.8019
▁쓰러지	-11.8019
▁안테나	-11.8019
▁인수제안	-11.8019
▁조선일보	-11.8019
▁리브니	-11.8019
▁메케인	-11.8019
▁레예스	-11.8019
▁엘리엇	-11.8019
AIDS	-11.8019
USGS	-11.8019
▁선거유세	-11.8019
▁오사카	-11.8019
▁컬럼비아호	-11.8019
▁에볼라	-11.8019
▁무자비	-11.8019
▁불도저	-11.8019
▁아침식사	-11.8019
▁스프링스틴	-11.8019
▁액션	-11.8019
▁붐비는	-11.8019
▁놀이공원	-11.8019
▁국가안보보좌관	-11.8019
▁무작위	-11.8019
▁손가락	-11.8019
▁크리켓	-11.8019
▁링컨	-11.8019
▁무언가	-11.8019
▁미타그	-11.8019
▁발리우드	-11.8019
▁화학물질	-11.8019
(41)	-11.8019
▁경수로	-11.8019
▁온몸	-11.8019
▁검정색	-11.8019
▁홍보담당자	-11.802
▁작가조합	-11.802
▁출몰	-11.802
eign	-11.802
▁그만두	-11.802
▁당첨	-11.802
▁어둠	-11.802
▁낭독	-11.802
▁Park	-11.802
▁현대자동차	-11.802
▁평의회	-11.802
▁얼룩말	-11.802
▁데이비스컵	-11.802
NDO	-11.802
▁동아시아	-11.802
▁test	-11.802
▁기념행사	-11.802
▁군사행동	-11.802
▁블랙홀	-11.802
▁불러일으키	-11.802
action	-11.802
▁장례	-11.8021
▁차량폭탄테러	-11.8021
▁낫다	-11.8021
▁과격단체	-11.8021
▁포털	-11.8021
▁부유층	-11.8021
▁봉투	-11.8022
▁별칭	-11.8022
▁찾아냈다	-11.8022
▁주모자	-11.8022
▁비겁	-11.8022
▁푸른	-11.8022
▁우호적	-11.8022
▁폭염	-11.8022
▁축구선수	-11.8022
▁사흘	-11.8022
▁비밀요원	-11.8022
▁기상학자	-11.8022
▁희미	-11.8022
▁로지스	-11.8022
▁노골적	-11.8023
▁휴먼	-11.8023
▁밀매	-11.8023
▁검은색	-11.8023
▁그레그	-11.8023
▁호황	-11.8023
▁어윈	-11.8023
▁폐쇄됐다	-11.8023
바레드	-11.8024
▁기관총	-11.8024
▁편견	-11.8024
▁잃었으며	-11.8024
▁누구인지	-11.8025
▁도킹	-11.8025
▁낙타	-11.8025
▁평화회담	-11.8025
▁실망감	-11.8025
▁무효화	-11.8025
▁채굴	-11.8025
▁루머	-11.8025
▁친구들이	-11.8025
▁헬러	-11.8025
▁만평	-11.8026
▁출입국	-11.8026
▁알라위	-11.8026
▁자치권	-11.8026
▁환급	-11.8026
▁듀크	-11.8026
▁파이프	-11.8027
▁종말	-11.8027
▁내륙	-11.8027
▁폭발사고	-11.8027
▁모스크	-11.8028
▁거주민	-11.8028
▁표범	-11.8028
▁화산재	-11.8029
▁선거결과	-11.8029
▁바꾼	-11.8029
▁소도시	-11.803
▁소변	-11.803
▁연립	-11.803
▁제국주의	-11.803
▁신변	-11.803
▁자동차산업	-11.803
▁시달리	-11.803
▁홀더	-11.803
▁휴회	-11.8031
▁자폭	-11.8031
▁표본	-11.8031
▁태우	-11.8032
▁떼어	-11.8032
▁절정	-11.8033
▁잠복	-11.8033
▁파열	-11.8033
▁이뤘	-11.8033
▁근방	-11.8033
▁학계	-11.8033
▁양빈	-11.8033
▁0.3	-11.8034
▁되도록	-11.8035
▁도망치	-11.8035
▁친지들	-11.8035
▁축적	-11.8035
▁경색	-11.8035
▁응급실	-11.8036
▁풀려나	-11.8036
▁결단	-11.8036
▁교신	-11.8036
▁자율	-11.8036
▁무레이	-11.8036
프로축구	-11.8037
해발	-11.8037
▁포탄	-11.8038
▁극단적인	-11.8038
축구연맹	-11.8039
▁내몰	-11.8039
▁현저	-11.804
▁농구	-11.804
방위	-11.8041
▁청구서	-11.8042
▁찾아온	-11.8042
▁김영	-11.8042
▁퓨	-11.8043
▁벵	-11.8043
▁강조하며	-11.8043
▁달링	-11.8044
▁속력	-11.8044
▁무력화	-11.8045
▁상류	-11.8045
▁당부	-11.8045
▁대통령궁	-11.8046
▁과오	-11.8046
▁아샤	-11.8046
▁투명성	-11.8046
▁인정했지만	-11.8047
▁부합	-11.8047
▁루이지애나주	-11.8048
▁실천	-11.8048
▁반세기	-11.8049
▁Un	-11.8049
▁휴전선	-11.8051
▁펜실베니아주	-11.8051
▁형편	-11.8051
▁표정	-11.8053
▁달아나	-11.8053
▁거품	-11.8054
▁지도력	-11.8055
▁리츠	-11.8056
▁인도양	-11.8056
rime	-11.8056
▁친미	-11.8056
▁위함	-11.8056
▁꾸며	-11.8057
▁수익금	-11.8058
과학기술	-11.8059
▁엄청나	-11.8059
여채	-11.806
▁5500	-11.8061
▁시작하자	-11.8061
▁자재	-11.8063
▁흔들며	-11.8063
▁정복	-11.8063
▁천국	-11.8065
Thi	-11.8066
▁아담스	-11.8068
▁정문	-11.8068
▁개종	-11.8069
▁지방정부	-11.807
테이션	-11.807
▁근본주의자들	-11.8071
▁부르며	-11.8071
▁페니	-11.8072
▁해결하고	-11.8073
▁군사위원회	-11.8074
▁UAE	-11.8074
▁놈	-11.8074
▁골드만	-11.8075
▁뉴햄프셔주	-11.8077
투자	-11.8077
▁페러	-11.8077
▁인권문제	-11.8079
▁블루스	-11.8079
▁폭발음	-11.8082
▁기울이지	-11.8082
▁3500	-11.8083
▁특성	-11.8084
▁기법	-11.8087
▁성범죄자	-11.8089
▁벗어나기	-11.8089
▁해역에서	-11.8091
▁강행할	-11.8092
▁나누어	-11.8092
▁전망된다	-11.8093
▁분자	-11.8093
▁430	-11.8093
▁공금	-11.8094
▁국세청장	-11.8097
▁설치했다	-11.8097
정규직	-11.8098
▁환경부	-11.8101
▁보내야	-11.8102
▁불법적으로	-11.8102
▁3200	-11.8103
▁추측했다	-11.8103
▁보험사	-11.8104
▁차이점	-11.8105
eep	-11.8106
▁인체에	-11.8107
▁꺼리	-11.8107
라이트	-11.8108
드리스	-11.8113
▁마우	-11.8114
▁불타	-11.8116
▁유지될	-11.8117
▁소방서장	-11.8118
랜스	-11.8118
▁370	-11.812
▁동부지역에서	-11.812
▁변함	-11.812
▁예산안	-11.8121
▁이루어지지	-11.8125
▁북한측	-11.8128
▁제거하는	-11.8129
▁부호	-11.8131
▁지형	-11.8132
루스	-11.8134
▁붕괴됐다	-11.8134
▁녹스	-11.8136
▁잎	-11.8137
▁총회에서	-11.8138
▁실형	-11.8138
▁fund	-11.8145
▁크레인	-11.8146
▁330	-11.8146
▁거주지역	-11.8148
▁석유회사	-11.8148
▁타개	-11.8149
▁채용	-11.8149
▁의사회	-11.8149
▁현안	-11.815
▁수혈	-11.8151
▁제압	-11.8151
▁안된다고	-11.8154
체스터	-11.8157
▁스티븐스	-11.8157
▁좋아지	-11.816
▁통과시킨	-11.8161
▁무너지고	-11.8162
▁지속되고	-11.8164
▁선수들에게	-11.817
▁피랍됐다	-11.8172
▁부모에게	-11.8175
▁원석	-11.8176
▁You	-11.8177
▁구입했다	-11.8178
▁나타낸다	-11.8178
▁day	-11.8179
▁연구실	-11.8179
▁접어	-11.818
▁용지	-11.818
주일간	-11.8186
▁실망했다	-11.8186
▁전술	-11.8187
▁적용할	-11.819
▁지도자들에게	-11.8193
law	-11.8194
▁늘었다	-11.8198
▁산업지수	-11.8201
▁인사들과	-11.8206
▁확실시되	-11.8207
▁해안지역	-11.8207
▁참석하는	-11.8211
▁필리	-11.8212
▁사이트에서	-11.8213
▁맞붙는	-11.8216
▁웨스	-11.8219
▁뉴욕시장	-11.8221
▁부장은	-11.8224
▁보물	-11.8229
▁행해	-11.8229
▁추산되	-11.8232
▁time	-11.8235
Dis	-11.8236
▁납치됐	-11.8236
▁기숙사에서	-11.8236
했거나	-11.8237
Chu	-11.8241
▁끝나면	-11.8245
▁명상	-11.8245
▁취지	-11.8245
▁먹었다	-11.8246
▁싸우고	-11.8248
▁뒤진	-11.8251
재정	-11.8252
into	-11.8252
▁쥐들	-11.8254
▁발레	-11.8257
▁명이다	-11.826
▁전달하는	-11.826
▁연안에서	-11.8263
▁장애인	-11.8264
▁was	-11.8264
▁고고학자	-11.8265
▁유서	-11.8266
스버그	-11.8272
아시아	-11.8274
▁블로거들	-11.8276
▁운영되	-11.8276
▁상하이에서	-11.8276
▁안될	-11.8278
▁참석자들	-11.8279
루드	-11.8279
▁후송됐다	-11.8281
바락	-11.8283
▁것일까	-11.8285
▁힘들어	-11.8285
▁활동가들	-11.8287
▁살상	-11.8291
▁진출할	-11.8291
▁점원	-11.8292
▁고소했다	-11.8293
▁투표자	-11.8296
▁칭했다	-11.8298
▁터지	-11.8302
▁중국어	-11.8302
▁출전했다	-11.8306
▁목장	-11.8312
▁일보	-11.8314
▁수세기	-11.8316
▁작성했다	-11.8317
▁비어	-11.8317
받지	-11.832
▁형법	-11.8327
타미	-11.8329
▁경찰국장	-11.8332
▁바에따르면	-11.8333
▁호프	-11.8334
▁재정비	-11.8335
▁내린다	-11.8337
▁이슬람교도	-11.8338
▁싶어하지	-11.8339
▁잠정	-11.8342
▁말해주	-11.8352
▁전해드	-11.8352
▁콜로	-11.8356
▁떠나기	-11.8358
▁축구팬들	-11.8359
시간씩	-11.8359
▁언론사	-11.836
▁군데	-11.836
Ed	-11.8361
▁수니파와	-11.8361
▁도드	-11.8361
▁인하했다	-11.8362
▁후보간	-11.8363
▁알레	-11.8374
▁번호	-11.8375
웨어	-11.8378
▁불량	-11.8379
해냈다	-11.838
▁출두했다	-11.8385
▁hel	-11.8397
▁정당인	-11.8404
ord	-11.8416
▁회복되	-11.8418
▁시도하고	-11.8419
▁이슬람인들	-11.8421
night	-11.8441
▁공개되	-11.8446
▁남성에게	-11.8447
▁후원자	-11.8447
▁수행하기	-11.8449
▁work	-11.8454
제조	-11.8457
▁대개	-11.8459
▁7.1	-11.8464
ef	-11.8471
▁자동차회사	-11.8472
▁정해졌	-11.8489
▁안전성	-11.8493
▁축구팬	-11.8496
▁내역	-11.8503
전문가들	-11.8506
▁순례객	-11.8507
Min	-11.8508
▁개발도상국들	-11.8509
▁부국장	-11.8511
▁제조업자	-11.8515
▁나쁘	-11.8515
▁봉사단	-11.8518
▁영구적	-11.8524
▁말이다	-11.853
▁버렸	-11.8533
▁표하고	-11.8534
▁지상에서	-11.8537
▁베니	-11.854
▁공급하기	-11.8545
▁유전적	-11.855
▁생물학	-11.8552
▁느꼈	-11.8556
▁의대	-11.8557
ye	-11.8559
▁경우에는	-11.8565
▁우려된다	-11.8581
▁봉인	-11.8581
4.6	-11.8602
▁파장	-11.8609
▁사람이다	-11.8617
하듯	-11.8622
▁개발자들	-11.8627
▁베드	-11.8629
979	-11.8632
▁보고됐다	-11.864
▁저질렀	-11.8642
▁시작됐	-11.865
싸	-11.8657
정신	-11.8657
따	-11.8658
사령부	-11.8658
쌍	-11.8659
눈	-11.866
OPEC	-11.8662
기상청	-11.8663
ISS	-11.8664
앨범	-11.8664
Korea	-11.8665
메리	-11.8667
▁삼아	-11.8668
식품	-11.8668
경쟁	-11.8669
▁자행한	-11.8674
모델	-11.8675
▁지시한	-11.8678
사람들은	-11.8679
Com	-11.868
보낼	-11.8683
다닐	-11.869
예산	-11.8692
파업	-11.8695
▁사퇴했다	-11.8696
▁발전기	-11.8699
ze	-11.8705
부총리	-11.8706
ten	-11.8706
연방	-11.8708
▁원만	-11.8708
▁변기	-11.8719
▁테러단체로	-11.8724
소설	-11.8725
▁변했다	-11.8731
EA	-11.8737
▁지지하지	-11.8737
▁노출된	-11.874
▁제출된	-11.8745
▁수천만	-11.8748
▁학교측	-11.8751
▁정보통	-11.8757
▁210	-11.8757
▁서적	-11.8767
타이거	-11.8767
▁외교부장	-11.8769
▁지향	-11.8769
놓는다	-11.877
other	-11.877
▁임원들	-11.8771
▁161	-11.8777
▁가면	-11.878
▁뉴질랜드에서	-11.8784
▁입찰	-11.8792
▁인용했다	-11.8793
맘	-11.8802
▁청구했다	-11.8803
▁속해	-11.8804
▁타오	-11.8806
▁진상조사	-11.8806
말까지	-11.8807
▁간주하	-11.8808
역사	-11.8813
텍	-11.8814
▁유언	-11.8816
저리	-11.8826
▁확보하는	-11.8834
▁시위대들	-11.8834
모건	-11.8835
셸	-11.8838
▁구입하는	-11.8841
949	-11.8842
연금	-11.8843
▁마텔	-11.8845
둑	-11.8847
▁도미니	-11.885
▁불러일으	-11.8851
콕	-11.8851
돋	-11.8852
벳	-11.8852
사관학교	-11.8852
▁로빈	-11.8852
▁살모넬라	-11.8852
▁Association	-11.8852
▁GPS	-11.8852
▁Health	-11.8852
▁problem	-11.8852
▁광저우	-11.8852
▁노스다코타	-11.8852
▁리투아니아	-11.8852
▁스피커	-11.8852
▁쌓아	-11.8852
▁옵션	-11.8852
▁천안문	-11.8852
▁키티호크	-11.8852
▁헐리우드	-11.8852
륭	-11.8852
econd	-11.8852
week	-11.8852
▁Australia	-11.8852
▁NHK	-11.8852
▁TGV	-11.8852
▁candidate	-11.8852
▁economy	-11.8852
▁hostage	-11.8852
▁peace	-11.8852
▁가디언	-11.8852
▁건강보험	-11.8852
▁겪어	-11.8852
▁굉장히	-11.8852
▁김경준	-11.8852
▁까다로운	-11.8852
▁나폴리타노	-11.8852
▁난투극	-11.8852
▁남동생	-11.8852
▁네델란드	-11.8852
▁늦추	-11.8852
▁다녔다	-11.8852
▁대북제재	-11.8852
▁댕기열	-11.8852
▁더글라스	-11.8852
▁델라웨어	-11.8852
▁레오나르	-11.8852
▁루고보이	-11.8852
▁미확인	-11.8852
▁민주변화	-11.8852
▁바뀌었다	-11.8852
▁바랐다	-11.8852
▁바리케이드	-11.8852
▁발렌타인	-11.8852
▁보디가드	-11.8852
▁부드러운	-11.8852
▁분리독립	-11.8852
▁서부텍사스산	-11.8852
▁스머프	-11.8852
▁스테로이드	-11.8852
▁스펙터	-11.8852
▁스프린트	-11.8852
▁싶었다	-11.8852
▁알츠하이머	-11.8852
▁이슬라미야	-11.8852
▁인터내셔널	-11.8852
▁자르카위	-11.8852
▁재확인했다	-11.8852
▁족자카르타	-11.8852
▁카스파로프	-11.8852
▁컨텐츠	-11.8852
▁클래식	-11.8852
▁클랩튼	-11.8852
▁트러스트	-11.8852
▁항공모함	-11.8852
▁핵사찰단	-11.8852
▁행방불명	-11.8852
▁헨더슨	-11.8852
눕	-11.8852
▁expect	-11.8852
▁trans	-11.8852
▁국가정보원	-11.8852
▁노란색	-11.8852
▁라말라	-11.8852
▁알레르기	-11.8852
▁언젠가	-11.8852
▁유투브	-11.8852
▁은하계	-11.8852
▁즐거운	-11.8852
▁트레제게	-11.8852
▁회교도	-11.8852
mbass	-11.8852
▁대법관	-11.8852
▁복부비만	-11.8852
▁솔라나	-11.8852
▁전두환	-11.8852
▁존엄성	-11.8852
▁카제미	-11.8852
▁현충일	-11.8852
▁공청회	-11.8852
▁모니카	-11.8852
▁비무장지대	-11.8852
▁어리석	-11.8852
▁우체국	-11.8852
▁카밀라	-11.8852
▁물대포	-11.8852
▁빔보	-11.8852
▁센트럴	-11.8852
▁전자메일	-11.8852
▁퇴출	-11.8852
▁제노아	-11.8852
▁카우치	-11.8852
▁보너스	-11.8852
▁튜브	-11.8852
▁바이에른	-11.8852
▁친인척	-11.8852
▁동등한	-11.8852
▁포츠머스	-11.8852
▁의정서	-11.8852
▁떠다니	-11.8852
▁버나드	-11.8852
▁삼성전자	-11.8852
▁할로윈	-11.8852
▁스콜스	-11.8852
▁불가사의	-11.8852
▁미생물	-11.8852
▁막바지	-11.8852
▁유연한	-11.8852
됨으로써	-11.8852
▁디아즈	-11.8852
▁월경작전	-11.8852
▁agree	-11.8852
▁플로렌스	-11.8852
▁갑작스럽	-11.8853
▁결론지었다	-11.8853
▁리프트	-11.8853
▁운전기사	-11.8853
▁플래카드	-11.8853
(33)	-11.8853
▁민주변화운동	-11.8853
▁에어컨	-11.8853
▁정권인수팀	-11.8853
(42)	-11.8853
(52)	-11.8853
▁그려진	-11.8853
▁따돌렸다	-11.8853
▁초고속	-11.8853
▁추도식	-11.8853
▁언쟁	-11.8853
▁소비에트	-11.8853
▁블랙워터	-11.8853
▁종합병원	-11.8853
▁불상사	-11.8853
▁make	-11.8853
▁벗어났다	-11.8853
▁알라스카	-11.8853
▁악몽	-11.8853
▁크로포드	-11.8853
▁베이징올림픽	-11.8853
▁현명한	-11.8853
▁집주인	-11.8853
▁빠져나갔다	-11.8853
▁틸리	-11.8853
▁철폐	-11.8853
▁쥐스틴	-11.8853
▁냉각	-11.8853
▁KBS	-11.8853
▁놀이기구	-11.8853
쿼터	-11.8853
로프트	-11.8854
▁아이튠	-11.8854
▁탈옥	-11.8854
MLS	-11.8854
▁겨누	-11.8854
▁비상대책	-11.8854
▁서유럽	-11.8854
(30)	-11.8854
▁올라간다	-11.8854
▁교훈	-11.8854
(20)	-11.8854
▁청취	-11.8854
▁수감생활	-11.8854
▁홀랜드	-11.8854
(22)	-11.8854
▁스페이스	-11.8854
▁출현	-11.8854
▁혈통	-11.8854
▁사무국장은	-11.8855
▁타깃	-11.8855
▁killed	-11.8855
▁졸업생	-11.8855
▁동결자금	-11.8855
▁cut	-11.8855
▁높아져	-11.8855
▁피난처	-11.8855
▁등뼈	-11.8855
▁부정행위	-11.8855
▁우발적	-11.8855
▁다가왔다	-11.8855
이었는데	-11.8856
▁정몽	-11.8856
▁순결	-11.8856
▁부흥	-11.8856
▁say	-11.8856
▁soldiers	-11.8856
▁윈저	-11.8856
▁놀라움	-11.8856
▁거둬	-11.8856
▁달려있다	-11.8856
▁가져온	-11.8856
▁봉급	-11.8857
▁플린	-11.8857
▁디젤	-11.8857
▁만들어낸	-11.8857
▁머독	-11.8857
▁생애	-11.8857
▁왕족	-11.8857
▁유로스타	-11.8857
▁케이티	-11.8857
▁축구협회	-11.8857
▁어부들	-11.8858
▁attacks	-11.8858
▁years	-11.8858
▁신탁	-11.8858
▁과열	-11.8858
▁비서관	-11.8858
▁뉴먼	-11.8858
▁살인사건	-11.8858
▁입혔다	-11.8858
▁월급	-11.886
▁잠입	-11.886
▁공헌	-11.886
▁소멸	-11.886
▁석권	-11.886
▁떨어졌으며	-11.886
▁떨어지면서	-11.886
▁운용	-11.886
▁질책	-11.886
▁마티	-11.886
▁절실	-11.886
▁담합	-11.8861
▁능가	-11.8861
▁아시안	-11.8861
▁태생	-11.8861
▁이정인	-11.8861
▁빈센트	-11.8861
▁휩쓸려	-11.8861
▁교도관	-11.8862
▁샹	-11.8862
▁쿡	-11.8862
▁Man	-11.8862
▁법무상	-11.8862
▁선례	-11.8862
▁일어났으며	-11.8862
▁보냈으며	-11.8862
▁복직	-11.8863
함으로서	-11.8863
▁피해규모	-11.8863
▁유명해졌다	-11.8863
▁즉석	-11.8864
▁aid	-11.8864
▁주택시장	-11.8864
▁지나갔다	-11.8864
▁늘려	-11.8864
▁청산	-11.8864
▁명절	-11.8864
▁1967	-11.8864
▁목재	-11.8865
▁번복	-11.8865
▁채팅	-11.8865
▁정치활동	-11.8865
▁상환	-11.8866
▁떠올리	-11.8866
▁leaders	-11.8866
▁평온	-11.8866
▁양봉	-11.8866
▁세르비아계	-11.8867
▁출구	-11.8867
▁무례	-11.8867
▁적용되는	-11.8868
▁체인점	-11.8868
▁점진적	-11.8868
▁커져	-11.8868
▁털어	-11.8869
▁고추	-11.8869
▁역설했다	-11.887
▁완강	-11.887
▁야유	-11.887
브룩	-11.8871
ful	-11.8871
▁버몬트주	-11.8871
▁고독	-11.8872
▁생계	-11.8873
▁루터	-11.8873
▁최고령	-11.8873
▁매료	-11.8875
▁유류	-11.8875
▁오존	-11.8876
▁남자들이	-11.8876
▁자국민	-11.8876
▁인출	-11.8876
▁메모	-11.8876
▁소금	-11.8877
▁헝	-11.8878
▁연방준비은행	-11.8878
▁왕조	-11.8879
▁종합지수	-11.8879
▁없어질	-11.888
▁파탄	-11.8881
▁가져오	-11.8881
▁거칠	-11.8881
▁유래	-11.8881
▁그러면	-11.8881
▁무시했다	-11.8881
▁돌발	-11.8882
▁철수시킬	-11.8882
▁혼자서	-11.8882
▁밀크	-11.8883
▁발판	-11.8884
▁도출	-11.8884
▁단단	-11.8884
▁행보	-11.8885
▁버티	-11.8885
▁0.6	-11.8885
▁통제권	-11.8886
▁태형	-11.8888
▁가속	-11.8888
▁오찬	-11.8889
▁시작했을	-11.8889
▁부분적으로	-11.889
▁아예	-11.889
▁요크	-11.889
▁매복	-11.8891
▁티보	-11.8892
▁거액	-11.8893
▁갓	-11.8893
▁부양	-11.8893
▁요구했었다	-11.8894
▁증명서	-11.8894
▁office	-11.8895
▁소득세	-11.8895
▁파병군	-11.8895
▁뻔	-11.8895
▁깨어	-11.8896
▁미끄러지	-11.8896
▁게디	-11.8897
▁동조	-11.8898
▁군사정부	-11.8899
▁아론	-11.89
▁분장	-11.89
▁저조	-11.8901
▁언급하면서	-11.8902
▁교제	-11.8902
▁카라다	-11.8902
▁우정	-11.8903
▁실종됐	-11.8904
▁Koreans	-11.8904
▁살레	-11.8905
▁주장했으나	-11.8905
▁가문	-11.8906
▁마요	-11.8906
▁유린	-11.8909
▁행정장관	-11.8909
▁시에나	-11.8909
▁소모	-11.891
쳐야	-11.891
짐에따라	-11.891
▁확정했다	-11.8911
▁113	-11.8913
▁게재했다	-11.8914
▁상태이며	-11.8914
▁세무	-11.8914
▁탄력	-11.8914
▁모리스	-11.8915
▁유형	-11.8916
bur	-11.8916
▁루트	-11.8919
▁기뻐	-11.892
▁작품들	-11.892
▁소비량	-11.8921
▁논리	-11.8923
▁경찰들	-11.8924
▁함자	-11.8926
▁동부지역	-11.8926
▁구매자	-11.8927
▁불신	-11.8927
▁간직	-11.8929
▁밝혀내지	-11.8929
▁유로화	-11.893
프랑	-11.893
▁국가대표팀	-11.893
퍼드	-11.8931
▁발생하여	-11.8931
▁당파	-11.8931
▁레비	-11.8932
▁불경기	-11.8932
▁총리로서	-11.8934
▁280	-11.8935
▁원정	-11.8936
▁헌장	-11.8936
▁별세	-11.8936
▁쓰러졌다	-11.8937
▁문화부	-11.8937
▁최소화	-11.8938
ami	-11.8938
▁말하면	-11.8941
▁감사원	-11.8942
공개	-11.8942
▁토미	-11.8945
▁바꾸어	-11.8946
▁전반전	-11.8946
▁중학교	-11.8947
▁현명하	-11.8949
▁체포했으며	-11.8949
슈아	-11.895
▁발생했었다	-11.895
▁외곽지역	-11.8952
dom	-11.8957
▁0.8	-11.896
▁돌려받	-11.8961
▁기자단	-11.8961
재단	-11.8962
공간	-11.8962
▁윙	-11.8964
▁부인하며	-11.8965
▁분파	-11.8965
▁동의안	-11.8968
▁중부지역	-11.8972
▁보건장관	-11.8972
▁전국위원회	-11.8973
▁방영되	-11.8974
▁도와준	-11.8975
▁실리	-11.8978
▁주마	-11.898
▁현재로서	-11.898
▁마시지	-11.8981
증세	-11.8981
▁푼	-11.8982
사망	-11.8982
▁이송되었다	-11.8983
외교	-11.8985
▁거미	-11.899
▁장군과	-11.899
▁그랜	-11.899
▁주장했으며	-11.899
UF	-11.8992
▁도착하는	-11.8994
▁기뻐했다	-11.8995
▁존재한다	-11.8997
▁납부	-11.8997
▁배심원들	-11.8998
▁165	-11.8998
nt	-11.8999
▁살해하겠다	-11.8999
▁올드	-11.9002
▁Da	-11.9004
▁비판하는	-11.9005
▁모가디슈에서	-11.9006
▁낭	-11.9009
▁솔로	-11.9009
▁무성	-11.901
▁안치	-11.9011
▁로게	-11.9014
강전에	-11.9017
▁영화계	-11.9018
cent	-11.9019
▁2006.09	-11.9019
▁중단시켰다	-11.902
▁오염된	-11.9028
▁기여한	-11.9028
룸에서	-11.9029
발사	-11.903
▁악의적	-11.9032
▁목록에서	-11.9036
▁찬성표	-11.9041
▁실행할	-11.9041
▁공제	-11.9045
sen	-11.9046
▁대행	-11.9047
▁지휘자	-11.905
▁안정성	-11.9052
▁외화	-11.9053
▁입게	-11.9059
브론	-11.9063
▁프라하	-11.9067
런드	-11.9067
▁구명	-11.907
▁발견하게	-11.9078
▁발표했으며	-11.9079
▁중심가에서	-11.9088
카니	-11.909
▁사죄	-11.9094
▁철로	-11.9095
▁막사	-11.91
▁갑작스러	-11.9101
▁활용하	-11.9105
▁거머쥐었	-11.9107
▁129	-11.9121
▁극도	-11.9122
남북	-11.9124
▁촉발됐다	-11.9125
▁정세	-11.9129
렉스	-11.9132
소득	-11.9135
GM	-11.914
▁사상자수	-11.914
▁표시로	-11.9145
▁줄였다	-11.9149
▁사막에서	-11.9152
▁전처	-11.9154
▁2008.0	-11.9155
▁전망치	-11.9159
▁육박	-11.9161
▁모술에서	-11.9166
▁거실	-11.9166
▁스키장	-11.917
▁죄수	-11.9175
셰르	-11.9179
▁들어간다	-11.9179
▁오바	-11.9182
▁News	-11.9183
▁당사자	-11.9183
행해진	-11.9186
▁피살됐다	-11.919
▁5.7	-11.9197
▁선보이	-11.9198
▁제소	-11.9199
Pri	-11.9202
▁BP	-11.9213
▁용이하	-11.9214
산업평균지수	-11.9223
▁장갑	-11.9226
▁분명하지	-11.9227
▁선생님	-11.9231
▁요인들	-11.9233
▁잠들	-11.926
교통	-11.9269
▁마니	-11.9273
통계국	-11.9277
▁제한된	-11.9283
▁계획이었다	-11.9285
팬	-11.9298
▁충분하다	-11.9299
▁표준시	-11.9301
▁돌아가기	-11.9303
▁비서	-11.9305
▁가담했다	-11.9307
▁팔린	-11.9309
▁끝난다	-11.9315
자격	-11.9318
▁아마드	-11.9321
▁자백	-11.9325
▁추위	-11.9329
fter	-11.9332
▁적기	-11.9336
▁마련하고	-11.9341
uck	-11.9351
바라크	-11.9355
▁도착하기	-11.9361
▁질문들	-11.9369
루카	-11.9377
▁장갑차	-11.9378
▁순찰차	-11.9383
▁가라	-11.9389
▁이외에	-11.939
ray	-11.9393
▁낙관	-11.9398
대원들	-11.9401
▁자비	-11.9402
엘라	-11.9421
▁휴스	-11.9422
▁신청자	-11.9424
▁감독관	-11.9427
▁중소기업	-11.9429
06	-11.9433
▁유사하다	-11.9437
냈지만	-11.9445
▁안전하다	-11.9451
RG	-11.9457
▁납치하려	-11.9461
▁알프레	-11.9462
▁출발했다	-11.9464
▁둔화되	-11.948
▁청중들	-11.9489
▁대중들	-11.9495
own	-11.9502
▁차장	-11.9506
▁반대자들	-11.9507
▁지원자들	-11.951
▁안전하지	-11.9517
혁	-11.9527
▁아르빌에	-11.9528
▁비하	-11.9528
▁디나	-11.9529
▁환호하	-11.9537
▁1.7	-11.9539
AB	-11.9559
겁	-11.9564
컬	-11.9564
▁도착한다	-11.9566
흘	-11.9566
스트리트	-11.9568
3,000	-11.957
World	-11.957
낙	-11.9571
템	-11.9571
▁노렸	-11.9572
New	-11.9572
쓸	-11.9573
2009.01	-11.9573
왜	-11.9573
세르비아	-11.9574
팔레스타인	-11.9574
▁나타낸	-11.9575
유럽	-11.9575
반응	-11.9577
모닝	-11.9581
그녀	-11.9584
▁생산국	-11.9586
트럭	-11.9587
강전	-11.9589
프레스	-11.959
사람들이	-11.9593
▁보행	-11.9594
▁물건들	-11.9596
동료	-11.9596
장애	-11.9596
결정	-11.9601
▁미성년	-11.9614
▁안토니	-11.9618
▁티모	-11.9626
▁흥미로	-11.9631
▁태어났	-11.9631
▁인도주의	-11.9634
▁제작됐다	-11.9639
대결	-11.9643
▁스프링	-11.965
그린	-11.9654
▁서거	-11.9658
▁엔지니어들	-11.967
쉬운	-11.967
▁무능	-11.9672
▁Star	-11.9688
기준	-11.9691
▁인도인들	-11.9693
▁추측되	-11.9693
▁관장	-11.9696
nger	-11.9704
side	-11.971
▁연행했다	-11.9712
▁비난한다	-11.9716
wards	-11.9718
▁있겠	-11.9718
▁케네	-11.9719
극적으로	-11.9728
▁창립	-11.9729
▁Na	-11.9732
▁극단주의	-11.9737
over	-11.9744
▁역설	-11.9752
▁대응했다	-11.9753
낫	-11.9759
▁set	-11.976
inancial	-11.976
덱	-11.9761
▁솔로몬	-11.9761
▁Service	-11.9761
▁market	-11.9761
▁people	-11.9761
▁교토의정서	-11.9761
▁디와니야	-11.9761
▁보드랜더	-11.9761
▁아틀레티코	-11.9761
▁차이나데일리	-11.9761
▁테베즈	-11.9761
뚱	-11.9761
멈	-11.9761
world	-11.9761
▁Chinese	-11.9761
▁EMI	-11.9761
▁French	-11.9761
▁Russia	-11.9761
▁Senate	-11.9761
▁Street	-11.9761
▁missile	-11.9761
▁withdraw	-11.9761
▁가브리엘	-11.9761
▁강제진압	-11.9761
▁고혈압	-11.9761
▁교통체증	-11.9761
▁그렇다고	-11.9761
▁끌었다	-11.9761
▁나스랄라	-11.9761
▁남우주연상	-11.9761
▁네브래스카	-11.9761
▁노벨평화상	-11.9761
▁노스웨스트	-11.9761
▁뇌종양	-11.9761
▁대배심	-11.9761
▁레터맨	-11.9761
▁로버츠	-11.9761
▁루프트한자	-11.9761
▁메트로폴리	-11.9761
▁불균형	-11.9761
▁불확실성	-11.9761
▁불확실한	-11.9761
▁브란카토	-11.9761
▁브래들리	-11.9761
▁브루클린	-11.9761
▁뿌려	-11.9761
▁사우스다코타	-11.9761
▁사파테로	-11.9761
▁서포터	-11.9761
▁세컨드라이프	-11.9761
▁수족구병	-11.9761
▁스페셜	-11.9761
▁시기상조라	-11.9761
▁신시내티	-11.9761
▁아제르바이잔	-11.9761
▁알리탈리아	-11.9761
▁애틀랜틱	-11.9761
▁약물복용	-11.9761
▁에메랄드	-11.9761
▁에스판디아리	-11.9761
▁예방접종	-11.9761
▁유벤투스	-11.9761
▁자바코뿔소	-11.9761
▁정확하지	-11.9761
▁조직폭력배	-11.9761
▁죄책감	-11.9761
▁카메룬	-11.9761
▁카트만두	-11.9761
▁컵케이크	-11.9761
▁코카콜라	-11.9761
▁코펜하겐	-11.9761
▁콴타스	-11.9761
▁클리브랜드	-11.9761
▁템파베이	-11.9761
▁파르베즈	-11.9761
▁패트로스	-11.9761
▁펀자브	-11.9761
▁해밀턴	-11.9761
▁호나우지뉴	-11.9761
▁홀로코스트	-11.9761
▁황열병	-11.9761
▁휘두르	-11.9761
▁흑색종	-11.9761
멕	-11.9761
송완영	-11.9761
▁accus	-11.9761
▁invest	-11.9761
▁다빈치	-11.9761
▁독립선언	-11.9761
▁스릴러	-11.9761
▁시베리아	-11.9761
▁아인슈타인	-11.9761
▁의사소통	-11.9761
▁팽창	-11.9761
▁프레틸린	-11.9761
▁해수욕장	-11.9761
▁핵원자로	-11.9761
▁Pakistan	-11.9761
▁목걸이	-11.9761
▁박스데일	-11.9761
▁산티아고	-11.9761
▁이병헌	-11.9761
▁친서방	-11.9761
▁ABN	-11.9761
▁고래상어	-11.9761
▁그라이브	-11.9761
▁멜리사	-11.9761
▁패터슨	-11.9761
▁비키니	-11.9761
오피니언리서치	-11.9761
KLM	-11.9761
Two	-11.9761
▁유니폼	-11.9761
▁만수르	-11.9761
▁비엔나	-11.9761
▁오클리	-11.9761
▁세비르	-11.9761
▁포브스	-11.9761
▁urge	-11.9761
▁갑판	-11.9761
▁순조롭	-11.9761
▁구덩이	-11.9761
▁라자스탄	-11.9761
▁빙붕	-11.9761
▁산유국	-11.9761
▁마운트	-11.9762
▁로하스	-11.9762
eneral	-11.9762
▁욕실	-11.9762
▁맹렬	-11.9762
▁징크	-11.9762
▁트레이시	-11.9762
▁세르게이	-11.9762
▁최루가스	-11.9762
▁버핏	-11.9762
nivers	-11.9762
▁맛봤다	-11.9762
▁씨앗	-11.9762
(37)	-11.9762
▁클라우디	-11.9762
▁팩스	-11.9762
▁있으므로	-11.9762
▁탁자	-11.9762
▁슬램	-11.9762
▁컨트리	-11.9762
▁사무엘	-11.9762
▁선거인단	-11.9762
▁안와르	-11.9762
▁혈압	-11.9762
▁아흐마드	-11.9762
▁용도로	-11.9762
▁마지드	-11.9762
(19)	-11.9762
▁폭죽	-11.9762
▁특검	-11.9762
▁구급차	-11.9762
▁정전사태	-11.9763
▁블랙베리	-11.9763
▁헤스턴	-11.9763
▁붙잡혔다	-11.9763
▁국가안보회의	-11.9763
▁삭스	-11.9763
▁0.25	-11.9763
▁체스판	-11.9763
▁터뜨렸다	-11.9763
▁전자제품	-11.9763
▁받으려	-11.9763
emb	-11.9763
▁작별	-11.9763
했어야	-11.9763
▁고의적으로	-11.9763
▁착각	-11.9763
▁따냈다	-11.9763
▁좌초	-11.9764
▁크리스틴	-11.9764
ww	-11.9764
(50)	-11.9764
▁잠겼다	-11.9764
▁어린아이	-11.9764
▁십먼	-11.9764
▁약물검사	-11.9764
▁군사훈련	-11.9764
▁비웃	-11.9764
▁폰테	-11.9764
▁dead	-11.9764
▁XP	-11.9764
▁게다가	-11.9765
▁불륜	-11.9765
▁피고측	-11.9765
▁관중석	-11.9765
▁처해있다	-11.9765
▁베풀	-11.9765
▁크리스마스트리	-11.9765
▁슬림	-11.9765
▁지켜볼	-11.9765
▁되찾았다	-11.9765
▁남아시아	-11.9765
▁회생	-11.9766
▁도서관	-11.9766
▁혈관	-11.9766
▁쓰레기통	-11.9766
▁추락사고	-11.9766
▁이해찬	-11.9766
▁페드로	-11.9766
▁축구스타	-11.9766
결핍	-11.9766
▁마피아	-11.9767
▁결항	-11.9767
▁미시시피강	-11.9767
▁휩싸여	-11.9767
▁특유	-11.9767
▁만능	-11.9767
▁호평	-11.9767
▁환경운동	-11.9767
▁마약거래	-11.9768
▁탄원서	-11.9768
▁청원서	-11.9768
▁차세대	-11.9768
▁관절	-11.9768
▁있었는데	-11.9768
▁붉은색	-11.9768
▁올리버	-11.9768
▁소장품	-11.9768
IDF	-11.9769
even	-11.9769
▁생물체	-11.9769
▁없었으나	-11.9769
첸코	-11.9769
▁공황	-11.9769
▁농심	-11.9769
▁계란	-11.9769
▁예배당	-11.977
▁완패	-11.977
▁난무하	-11.977
▁유의원	-11.977
than	-11.977
▁종족	-11.977
▁짐작	-11.977
▁위스키	-11.977
ship	-11.977
▁광동	-11.977
▁암호키	-11.977
▁금광	-11.977
▁성폭행범	-11.977
▁사망원인	-11.9771
▁상향	-11.9771
▁야망	-11.9771
▁국민은행	-11.9772
▁담았다	-11.9772
▁봐야	-11.9772
▁모텔	-11.9772
▁USB	-11.9772
▁피스코	-11.9773
▁어셔	-11.9773
▁일가족	-11.9773
투데이쇼	-11.9773
▁관측소	-11.9773
▁되어있다	-11.9773
▁보완	-11.9773
▁건강상태	-11.9773
▁단결	-11.9774
▁출소	-11.9774
▁확산되면서	-11.9774
▁경합	-11.9775
▁난입	-11.9775
▁MI	-11.9775
▁환경단체	-11.9775
▁피곤	-11.9775
▁성취	-11.9775
▁열악	-11.9775
▁표출	-11.9776
억파운드	-11.9776
rug	-11.9776
▁게시물	-11.9776
▁벌어졌던	-11.9776
▁조엘	-11.9777
해오고	-11.9778
▁길거리	-11.9778
▁감형	-11.9778
▁청원	-11.9778
▁갈색	-11.9779
▁칭하며	-11.9779
▁로케	-11.9779
▁크레디	-11.9779
▁쫓아내	-11.978
▁은둔	-11.978
▁증원	-11.978
▁취미	-11.978
▁북서	-11.978
▁의향	-11.9781
▁생체	-11.9781
▁반테러	-11.9781
▁설비	-11.9782
▁소탕하기	-11.9782
▁독려	-11.9782
▁480	-11.9782
▁용납하지	-11.9783
▁다수당	-11.9783
▁고등	-11.9783
▁장편	-11.9784
▁막판	-11.9784
▁확고히	-11.9784
▁귀중	-11.9784
▁그래미상	-11.9784
▁지도층	-11.9785
▁축구팀	-11.9785
▁호프만	-11.9785
▁적색	-11.9786
▁칼리드	-11.9787
▁간격	-11.9788
▁호감	-11.9789
▁임시정부	-11.979
▁김승	-11.979
▁산출	-11.979
▁경고문	-11.979
▁불리우	-11.9791
▁비열	-11.9791
▁수감됐	-11.9791
▁수면제	-11.9792
▁초보	-11.9792
▁2025	-11.9792
▁합성	-11.9792
▁분단	-11.9794
▁출생률	-11.9795
▁국교	-11.9795
▁요청했었다	-11.9796
▁담보	-11.9796
▁타워	-11.9797
GDP	-11.9799
▁부재	-11.9799
▁에이스	-11.98
▁1940	-11.98
▁마리오	-11.9801
▁여신	-11.9802
[...]
